{
  "version": "1.0",
  "truncation": {
    "direction": "Right",
    "max_length": 512,
    "strategy": "LongestFirst",
    "stride": 0
  },
  "padding": null,
  "added_tokens": [
    {
      "id": 0,
      "content": "[PAD]",
      "single_word": false,
      "lstrip": false,
      "rstrip": false,
      "normalized": false,
      "special": true
    },
    {
      "id": 1,
      "content": "[UNK]",
      "single_word": false,
      "lstrip": false,
      "rstrip": false,
      "normalized": false,
      "special": true
    },
    {
      "id": 2,
      "content": "[CLS]",
      "single_word": false,
      "lstrip": false,
      "rstrip": false,
      "normalized": false,
      "special": true
    },
    {
      "id": 3,
      "content": "[SEP]",
      "single_word": false,
      "lstrip": false,
      "rstrip": false,
      "normalized": false,
      "special": true
    },
    {
      "id": 4,
      "content": "[MASK]",
      "single_word": false,
      "lstrip": false,
      "rstrip": false,
      "normalized": false,
      "special": true
    },
    {
      "id": 5,
      "content": "<S>",
      "single_word": false,
      "lstrip": false,
      "rstrip": false,
      "normalized": false,
      "special": true
    },
    {
      "id": 6,
      "content": "<T>",
      "single_word": false,
      "lstrip": false,
      "rstrip": false,
      "normalized": false,
      "special": true
    }
  ],
  "normalizer": {
    "type": "BertNormalizer",
    "clean_text": true,
    "handle_chinese_chars": false,
    "strip_accents": false,
    "lowercase": false
  },
  "pre_tokenizer": {
    "type": "BertPreTokenizer"
  },
  "post_processor": null,
  "decoder": {
    "type": "WordPiece",
    "prefix": "##",
    "cleanup": true
  },
  "model": {
    "type": "WordPiece",
    "unk_token": "[UNK]",
    "continuing_subword_prefix": "##",
    "max_input_chars_per_word": 100,
    "vocab": {
      "[PAD]": 0,
      "[UNK]": 1,
      "[CLS]": 2,
      "[SEP]": 3,
      "[MASK]": 4,
      "<S>": 5,
      "<T>": 6,
      "\"": 7,
      "#": 8,
      "%": 9,
      "&": 10,
      "'": 11,
      "(": 12,
      ")": 13,
      "*": 14,
      "+": 15,
      ",": 16,
      "-": 17,
      ".": 18,
      "/": 19,
      "0": 20,
      "1": 21,
      "2": 22,
      "3": 23,
      "4": 24,
      "5": 25,
      "6": 26,
      "7": 27,
      "8": 28,
      "9": 29,
      ":": 30,
      ";": 31,
      "=": 32,
      "@": 33,
      "A": 34,
      "B": 35,
      "C": 36,
      "D": 37,
      "E": 38,
      "F": 39,
      "G": 40,
      "H": 41,
      "I": 42,
      "J": 43,
      "K": 44,
      "L": 45,
      "M": 46,
      "N": 47,
      "O": 48,
      "P": 49,
      "Q": 50,
      "R": 51,
      "S": 52,
      "T": 53,
      "U": 54,
      "V": 55,
      "W": 56,
      "X": 57,
      "Y": 58,
      "Z": 59,
      "[": 60,
      "\\": 61,
      "]": 62,
      "_": 63,
      "a": 64,
      "b": 65,
      "c": 66,
      "d": 67,
      "e": 68,
      "f": 69,
      "g": 70,
      "h": 71,
      "i": 72,
      "j": 73,
      "k": 74,
      "l": 75,
      "m": 76,
      "n": 77,
      "o": 78,
      "p": 79,
      "q": 80,
      "r": 81,
      "s": 82,
      "t": 83,
      "u": 84,
      "v": 85,
      "w": 86,
      "x": 87,
      "y": 88,
      "z": 89,
      "~": 90,
      "°": 91,
      "·": 92,
      "о": 93,
      "―": 94,
      "‘": 95,
      "’": 96,
      "“": 97,
      "”": 98,
      "ⅰ": 99,
      "ⅱ": 100,
      "≤": 101,
      "≥": 102,
      "①": 103,
      "②": 104,
      "ㅂ": 105,
      "ㅌ": 106,
      "가": 107,
      "각": 108,
      "간": 109,
      "갈": 110,
      "감": 111,
      "갑": 112,
      "값": 113,
      "강": 114,
      "갖": 115,
      "같": 116,
      "개": 117,
      "객": 118,
      "갤": 119,
      "갭": 120,
      "갱": 121,
      "거": 122,
      "건": 123,
      "걸": 124,
      "검": 125,
      "것": 126,
      "게": 127,
      "겟": 128,
      "겨": 129,
      "격": 130,
      "겪": 131,
      "견": 132,
      "결": 133,
      "겹": 134,
      "경": 135,
      "계": 136,
      "고": 137,
      "곡": 138,
      "곤": 139,
      "곧": 140,
      "곱": 141,
      "곳": 142,
      "공": 143,
      "과": 144,
      "곽": 145,
      "관": 146,
      "괄": 147,
      "광": 148,
      "괴": 149,
      "교": 150,
      "구": 151,
      "국": 152,
      "군": 153,
      "굴": 154,
      "굽": 155,
      "궁": 156,
      "권": 157,
      "궤": 158,
      "귀": 159,
      "규": 160,
      "균": 161,
      "그": 162,
      "극": 163,
      "근": 164,
      "글": 165,
      "금": 166,
      "급": 167,
      "기": 168,
      "긴": 169,
      "길": 170,
      "김": 171,
      "깃": 172,
      "깅": 173,
      "까": 174,
      "깨": 175,
      "꺼": 176,
      "께": 177,
      "껴": 178,
      "꾸": 179,
      "꾼": 180,
      "끊": 181,
      "끝": 182,
      "끼": 183,
      "나": 184,
      "낙": 185,
      "난": 186,
      "날": 187,
      "남": 188,
      "납": 189,
      "낭": 190,
      "낮": 191,
      "내": 192,
      "낸": 193,
      "낼": 194,
      "냄": 195,
      "냐": 196,
      "너": 197,
      "넌": 198,
      "널": 199,
      "넓": 200,
      "넘": 201,
      "넣": 202,
      "네": 203,
      "넥": 204,
      "넷": 205,
      "녀": 206,
      "년": 207,
      "념": 208,
      "노": 209,
      "녹": 210,
      "논": 211,
      "놀": 212,
      "높": 213,
      "놓": 214,
      "누": 215,
      "눈": 216,
      "눌": 217,
      "뉴": 218,
      "느": 219,
      "는": 220,
      "늘": 221,
      "능": 222,
      "늬": 223,
      "니": 224,
      "닌": 225,
      "닐": 226,
      "님": 227,
      "닛": 228,
      "닝": 229,
      "다": 230,
      "닥": 231,
      "단": 232,
      "달": 233,
      "담": 234,
      "답": 235,
      "닷": 236,
      "당": 237,
      "대": 238,
      "댁": 239,
      "댑": 240,
      "더": 241,
      "던": 242,
      "덤": 243,
      "덧": 244,
      "데": 245,
      "덱": 246,
      "덴": 247,
      "델": 248,
      "뎀": 249,
      "도": 250,
      "독": 251,
      "돈": 252,
      "돌": 253,
      "돕": 254,
      "동": 255,
      "되": 256,
      "된": 257,
      "될": 258,
      "됨": 259,
      "두": 260,
      "둔": 261,
      "둘": 262,
      "뒤": 263,
      "듀": 264,
      "듈": 265,
      "드": 266,
      "득": 267,
      "든": 268,
      "듣": 269,
      "들": 270,
      "듯": 271,
      "등": 272,
      "디": 273,
      "딜": 274,
      "딩": 275,
      "따": 276,
      "때": 277,
      "떠": 278,
      "떤": 279,
      "떨": 280,
      "떻": 281,
      "또": 282,
      "뜨": 283,
      "라": 284,
      "락": 285,
      "란": 286,
      "람": 287,
      "래": 288,
      "랙": 289,
      "랜": 290,
      "램": 291,
      "랫": 292,
      "랭": 293,
      "략": 294,
      "량": 295,
      "러": 296,
      "럭": 297,
      "런": 298,
      "럴": 299,
      "럼": 300,
      "럽": 301,
      "럿": 302,
      "렇": 303,
      "레": 304,
      "렉": 305,
      "렌": 306,
      "렛": 307,
      "려": 308,
      "력": 309,
      "련": 310,
      "렬": 311,
      "렴": 312,
      "렵": 313,
      "령": 314,
      "례": 315,
      "로": 316,
      "록": 317,
      "론": 318,
      "롤": 319,
      "롬": 320,
      "롭": 321,
      "롯": 322,
      "롱": 323,
      "뢰": 324,
      "료": 325,
      "루": 326,
      "룰": 327,
      "룹": 328,
      "뤄": 329,
      "류": 330,
      "률": 331,
      "륨": 332,
      "르": 333,
      "른": 334,
      "를": 335,
      "름": 336,
      "리": 337,
      "릭": 338,
      "린": 339,
      "릴": 340,
      "림": 341,
      "립": 342,
      "릿": 343,
      "링": 344,
      "마": 345,
      "막": 346,
      "만": 347,
      "많": 348,
      "말": 349,
      "망": 350,
      "맞": 351,
      "매": 352,
      "맥": 353,
      "맨": 354,
      "맵": 355,
      "맷": 356,
      "맺": 357,
      "머": 358,
      "먼": 359,
      "멀": 360,
      "메": 361,
      "멘": 362,
      "멤": 363,
      "며": 364,
      "면": 365,
      "명": 366,
      "몇": 367,
      "모": 368,
      "목": 369,
      "몰": 370,
      "몸": 371,
      "못": 372,
      "묘": 373,
      "무": 374,
      "문": 375,
      "물": 376,
      "뮤": 377,
      "뮬": 378,
      "므": 379,
      "미": 380,
      "믹": 381,
      "민": 382,
      "밀": 383,
      "밍": 384,
      "및": 385,
      "바": 386,
      "박": 387,
      "밖": 388,
      "반": 389,
      "받": 390,
      "발": 391,
      "방": 392,
      "배": 393,
      "백": 394,
      "밴": 395,
      "버": 396,
      "번": 397,
      "벌": 398,
      "범": 399,
      "법": 400,
      "벗": 401,
      "베": 402,
      "벡": 403,
      "벤": 404,
      "벨": 405,
      "벽": 406,
      "변": 407,
      "별": 408,
      "병": 409,
      "보": 410,
      "복": 411,
      "본": 412,
      "볼": 413,
      "봇": 414,
      "부": 415,
      "분": 416,
      "불": 417,
      "붙": 418,
      "뷰": 419,
      "브": 420,
      "블": 421,
      "비": 422,
      "빈": 423,
      "빌": 424,
      "빔": 425,
      "빗": 426,
      "빙": 427,
      "빠": 428,
      "빨": 429,
      "뿐": 430,
      "쁜": 431,
      "사": 432,
      "삭": 433,
      "산": 434,
      "살": 435,
      "삼": 436,
      "삽": 437,
      "상": 438,
      "새": 439,
      "색": 440,
      "샘": 441,
      "생": 442,
      "샷": 443,
      "서": 444,
      "석": 445,
      "선": 446,
      "설": 447,
      "섬": 448,
      "섭": 449,
      "성": 450,
      "세": 451,
      "섹": 452,
      "센": 453,
      "셀": 454,
      "셋": 455,
      "셔": 456,
      "션": 457,
      "셜": 458,
      "소": 459,
      "속": 460,
      "손": 461,
      "솔": 462,
      "송": 463,
      "쇄": 464,
      "쇼": 465,
      "숏": 466,
      "수": 467,
      "숙": 468,
      "순": 469,
      "술": 470,
      "숨": 471,
      "숫": 472,
      "쉬": 473,
      "쉽": 474,
      "슈": 475,
      "슐": 476,
      "스": 477,
      "슬": 478,
      "습": 479,
      "슷": 480,
      "승": 481,
      "시": 482,
      "식": 483,
      "신": 484,
      "실": 485,
      "심": 486,
      "십": 487,
      "싱": 488,
      "싸": 489,
      "쌍": 490,
      "써": 491,
      "쓸": 492,
      "씨": 493,
      "씩": 494,
      "아": 495,
      "악": 496,
      "안": 497,
      "앉": 498,
      "않": 499,
      "알": 500,
      "암": 501,
      "압": 502,
      "았": 503,
      "앙": 504,
      "앞": 505,
      "애": 506,
      "액": 507,
      "앤": 508,
      "앰": 509,
      "앱": 510,
      "앵": 511,
      "야": 512,
      "약": 513,
      "양": 514,
      "어": 515,
      "억": 516,
      "언": 517,
      "얻": 518,
      "얼": 519,
      "업": 520,
      "없": 521,
      "엇": 522,
      "었": 523,
      "에": 524,
      "엑": 525,
      "엔": 526,
      "엘": 527,
      "엠": 528,
      "여": 529,
      "역": 530,
      "연": 531,
      "열": 532,
      "염": 533,
      "였": 534,
      "영": 535,
      "옆": 536,
      "예": 537,
      "오": 538,
      "옥": 539,
      "온": 540,
      "올": 541,
      "옵": 542,
      "와": 543,
      "완": 544,
      "왔": 545,
      "왜": 546,
      "외": 547,
      "요": 548,
      "용": 549,
      "우": 550,
      "욱": 551,
      "운": 552,
      "울": 553,
      "움": 554,
      "웃": 555,
      "워": 556,
      "웍": 557,
      "원": 558,
      "월": 559,
      "웨": 560,
      "웹": 561,
      "위": 562,
      "윈": 563,
      "유": 564,
      "육": 565,
      "율": 566,
      "융": 567,
      "으": 568,
      "은": 569,
      "을": 570,
      "음": 571,
      "응": 572,
      "의": 573,
      "이": 574,
      "익": 575,
      "인": 576,
      "일": 577,
      "읽": 578,
      "임": 579,
      "입": 580,
      "잇": 581,
      "있": 582,
      "잉": 583,
      "자": 584,
      "작": 585,
      "잔": 586,
      "잘": 587,
      "잠": 588,
      "잡": 589,
      "장": 590,
      "재": 591,
      "잭": 592,
      "쟁": 593,
      "저": 594,
      "적": 595,
      "전": 596,
      "절": 597,
      "점": 598,
      "접": 599,
      "정": 600,
      "제": 601,
      "젝": 602,
      "젠": 603,
      "져": 604,
      "졌": 605,
      "조": 606,
      "족": 607,
      "존": 608,
      "좀": 609,
      "종": 610,
      "좋": 611,
      "좌": 612,
      "죄": 613,
      "주": 614,
      "준": 615,
      "줄": 616,
      "줌": 617,
      "중": 618,
      "쥴": 619,
      "즈": 620,
      "즉": 621,
      "즐": 622,
      "즘": 623,
      "증": 624,
      "지": 625,
      "직": 626,
      "진": 627,
      "질": 628,
      "짐": 629,
      "집": 630,
      "짓": 631,
      "징": 632,
      "짜": 633,
      "짧": 634,
      "째": 635,
      "쪽": 636,
      "차": 637,
      "착": 638,
      "찬": 639,
      "찰": 640,
      "참": 641,
      "창": 642,
      "찾": 643,
      "채": 644,
      "책": 645,
      "처": 646,
      "천": 647,
      "철": 648,
      "첨": 649,
      "첩": 650,
      "첫": 651,
      "청": 652,
      "체": 653,
      "쳐": 654,
      "초": 655,
      "촉": 656,
      "촘": 657,
      "총": 658,
      "촬": 659,
      "최": 660,
      "추": 661,
      "축": 662,
      "출": 663,
      "춤": 664,
      "충": 665,
      "취": 666,
      "츠": 667,
      "측": 668,
      "층": 669,
      "치": 670,
      "칙": 671,
      "친": 672,
      "칠": 673,
      "침": 674,
      "칩": 675,
      "칭": 676,
      "카": 677,
      "캐": 678,
      "캔": 679,
      "캘": 680,
      "캡": 681,
      "커": 682,
      "컨": 683,
      "컬": 684,
      "컴": 685,
      "케": 686,
      "켄": 687,
      "켓": 688,
      "켜": 689,
      "켰": 690,
      "코": 691,
      "콘": 692,
      "콜": 693,
      "쿨": 694,
      "쿼": 695,
      "퀀": 696,
      "퀴": 697,
      "큐": 698,
      "크": 699,
      "큰": 700,
      "클": 701,
      "큼": 702,
      "키": 703,
      "킨": 704,
      "킬": 705,
      "킴": 706,
      "킷": 707,
      "킹": 708,
      "타": 709,
      "탈": 710,
      "탐": 711,
      "탑": 712,
      "탓": 713,
      "탕": 714,
      "태": 715,
      "택": 716,
      "탬": 717,
      "탭": 718,
      "터": 719,
      "턴": 720,
      "털": 721,
      "텀": 722,
      "테": 723,
      "텍": 724,
      "텐": 725,
      "텔": 726,
      "템": 727,
      "텟": 728,
      "토": 729,
      "톡": 730,
      "톱": 731,
      "통": 732,
      "퇴": 733,
      "투": 734,
      "툴": 735,
      "튜": 736,
      "트": 737,
      "특": 738,
      "튼": 739,
      "틀": 740,
      "티": 741,
      "틱": 742,
      "틸": 743,
      "팅": 744,
      "파": 745,
      "판": 746,
      "팟": 747,
      "패": 748,
      "팬": 749,
      "팸": 750,
      "퍼": 751,
      "펀": 752,
      "펄": 753,
      "페": 754,
      "펙": 755,
      "펜": 756,
      "펨": 757,
      "펴": 758,
      "편": 759,
      "평": 760,
      "폐": 761,
      "포": 762,
      "폭": 763,
      "폰": 764,
      "폴": 765,
      "폼": 766,
      "표": 767,
      "푸": 768,
      "풀": 769,
      "품": 770,
      "풍": 771,
      "퓨": 772,
      "프": 773,
      "픈": 774,
      "플": 775,
      "피": 776,
      "픽": 777,
      "필": 778,
      "핑": 779,
      "하": 780,
      "학": 781,
      "한": 782,
      "할": 783,
      "함": 784,
      "합": 785,
      "핫": 786,
      "항": 787,
      "해": 788,
      "핵": 789,
      "핸": 790,
      "했": 791,
      "행": 792,
      "향": 793,
      "허": 794,
      "헌": 795,
      "헐": 796,
      "험": 797,
      "헤": 798,
      "헬": 799,
      "현": 800,
      "협": 801,
      "형": 802,
      "호": 803,
      "혹": 804,
      "혼": 805,
      "홀": 806,
      "홈": 807,
      "홉": 808,
      "홍": 809,
      "화": 810,
      "확": 811,
      "환": 812,
      "활": 813,
      "황": 814,
      "회": 815,
      "획": 816,
      "횟": 817,
      "효": 818,
      "후": 819,
      "휘": 820,
      "휴": 821,
      "흐": 822,
      "희": 823,
      "히": 824,
      "힘": 825,
      "）": 826,
      "－": 827,
      "．": 828,
      "０": 829,
      "１": 830,
      "２": 831,
      "８": 832,
      "Ａ": 833,
      "Ｂ": 834,
      "Ｃ": 835,
      "Ｄ": 836,
      "Ｅ": 837,
      "Ｇ": 838,
      "Ｉ": 839,
      "Ｌ": 840,
      "Ｍ": 841,
      "Ｎ": 842,
      "Ｏ": 843,
      "Ｐ": 844,
      "Ｒ": 845,
      "Ｓ": 846,
      "Ｔ": 847,
      "Ｕ": 848,
      "Ｖ": 849,
      "Ｗ": 850,
      "Ｘ": 851,
      "ａ": 852,
      "ｃ": 853,
      "ｅ": 854,
      "ｉ": 855,
      "ｍ": 856,
      "ｎ": 857,
      "ｏ": 858,
      "ｔ": 859,
      "ｕ": 860,
      "##지": 861,
      "##함": 862,
      "##으": 863,
      "##로": 864,
      "##써": 865,
      "##근": 866,
      "##관": 867,
      "##시": 868,
      "##킬": 869,
      "##성": 870,
      "##이": 871,
      "##래": 872,
      "##픽": 873,
      "##의": 874,
      "##0": 875,
      "##1": 876,
      "##실": 877,
      "##예": 878,
      "##항": 879,
      "##에": 880,
      "##2": 881,
      "##3": 882,
      "##8": 883,
      "##트": 884,
      "##릭": 885,
      "##스": 886,
      "##를": 887,
      "##M": 888,
      "##S": 889,
      "##I": 890,
      "##대": 891,
      "##역": 892,
      "##4": 893,
      "##5": 894,
      "##축": 895,
      "##된": 896,
      "##9": 897,
      "##우": 898,
      "##터": 899,
      "##6": 900,
      "##는": 901,
      "##원": 902,
      "##하": 903,
      "##고": 904,
      "##드": 905,
      "##7": 906,
      "##치": 907,
      "##서": 908,
      "##버": 909,
      "##H": 910,
      "##A": 911,
      "##거": 912,
      "##리": 913,
      "##무": 914,
      "##선": 915,
      "##통": 916,
      "##신": 917,
      "##부": 918,
      "##송": 919,
      "##호": 920,
      "##전": 921,
      "##비": 922,
      "##제": 923,
      "##공": 924,
      "##L": 925,
      "##정": 926,
      "##키": 927,
      "##속": 928,
      "##적": 929,
      "##텐": 930,
      "##츠": 931,
      "##와": 932,
      "##합": 933,
      "##보": 934,
      "##용": 935,
      "##됨": 936,
      "##을": 937,
      "##태": 938,
      "##천": 939,
      "##가": 940,
      "##티": 941,
      "##캐": 942,
      "##팅": 943,
      "##되": 944,
      "##도": 945,
      "##록": 946,
      "##a": 947,
      "##b": 948,
      "##e": 949,
      "##l": 950,
      "##i": 951,
      "##n": 952,
      "##g": 953,
      "##인": 954,
      "##워": 955,
      "##기": 956,
      "##위": 957,
      "##한": 958,
      "##체": 959,
      "##상": 960,
      "##량": 961,
      "##조": 962,
      "##건": 963,
      "##명": 964,
      "##N": 965,
      "##t": 966,
      "##d": 967,
      "##능": 968,
      "##증": 969,
      "##셜": 970,
      "##수": 971,
      "##할": 972,
      "##자": 973,
      "##단": 974,
      "##말": 975,
      "##계": 976,
      "##o": 977,
      "##동": 978,
      "##여": 979,
      "##금": 980,
      "##은": 981,
      "##빙": 982,
      "##승": 983,
      "##게": 984,
      "##쳐": 985,
      "##등": 986,
      "##장": 987,
      "##토": 988,
      "##콜": 989,
      "##어": 990,
      "##진": 991,
      "##다": 992,
      "##색": 993,
      "##물": 994,
      "##령": 995,
      "##들": 996,
      "##u": 997,
      "##R": 998,
      "##m": 999,
      "##V": 1000,
      "##B": 1001,
      "##좌": 1002,
      "##표": 1003,
      "##억": 1004,
      "##y": 1005,
      "##p": 1006,
      "##r": 1007,
      "##x": 1008,
      "##준": 1009,
      "##화": 1010,
      "##v": 1011,
      "##G": 1012,
      "##중": 1013,
      "##니": 1014,
      "##링": 1015,
      "##널": 1016,
      "##심": 1017,
      "##처": 1018,
      "##향": 1019,
      "##레": 1020,
      "##임": 1021,
      "##라": 1022,
      "##유": 1023,
      "##작": 1024,
      "##악": 1025,
      "##모": 1026,
      "##밀": 1027,
      "##맵": 1028,
      "##당": 1029,
      "##케": 1030,
      "##션": 1031,
      "##c": 1032,
      "##밍": 1033,
      "##절": 1034,
      "##미": 1035,
      "##랜": 1036,
      "##포": 1037,
      "##련": 1038,
      "##요": 1039,
      "##각": 1040,
      "##간": 1041,
      "##s": 1042,
      "##력": 1043,
      "##짐": 1044,
      "##마": 1045,
      "##세": 1046,
      "##청": 1047,
      "##징": 1048,
      "##설": 1049,
      "##플": 1050,
      "##힘": 1051,
      "##메": 1052,
      "##람": 1053,
      "##직": 1054,
      "##접": 1055,
      "##히": 1056,
      "##급": 1057,
      "##내": 1058,
      "##E": 1059,
      "##듈": 1060,
      "##과": 1061,
      "##콘": 1062,
      "##연": 1063,
      "##F": 1064,
      "##C": 1065,
      "##f": 1066,
      "##경": 1067,
      "##산": 1068,
      "##만": 1069,
      "##업": 1070,
      "##형": 1071,
      "##법": 1072,
      "##험": 1073,
      "##U": 1074,
      "##브": 1075,
      "##며": 1076,
      "##행": 1077,
      "##폰": 1078,
      "##면": 1079,
      "##국": 1080,
      "##타": 1081,
      "##개": 1082,
      "##방": 1083,
      "##식": 1084,
      "##답": 1085,
      "##율": 1086,
      "##생": 1087,
      "##킨": 1088,
      "##반": 1089,
      "##차": 1090,
      "##난": 1091,
      "##름": 1092,
      "##T": 1093,
      "##D": 1094,
      "##클": 1095,
      "##언": 1096,
      "##핑": 1097,
      "##석": 1098,
      "##블": 1099,
      "##즘": 1100,
      "##번": 1101,
      "##현": 1102,
      "##오": 1103,
      "##별": 1104,
      "##디": 1105,
      "##P": 1106,
      "##W": 1107,
      "##운": 1108,
      "##받": 1109,
      "##아": 1110,
      "##소": 1111,
      "##불": 1112,
      "##홀": 1113,
      "##킹": 1114,
      "##사": 1115,
      "##결": 1116,
      "##입": 1117,
      "##킴": 1118,
      "##바": 1119,
      "##출": 1120,
      "##료": 1121,
      "##린": 1122,
      "##택": 1123,
      "##영": 1124,
      "##될": 1125,
      "##략": 1126,
      "##데": 1127,
      "##나": 1128,
      "##주": 1129,
      "##효": 1130,
      "##웨": 1131,
      "##황": 1132,
      "##복": 1133,
      "##던": 1134,
      "##존": 1135,
      "##달": 1136,
      "##볼": 1137,
      "##얼": 1138,
      "##러": 1139,
      "##므": 1140,
      "##확": 1141,
      "##활": 1142,
      "##민": 1143,
      "##엔": 1144,
      "##휴": 1145,
      "##박": 1146,
      "##캔": 1147,
      "##더": 1148,
      "##족": 1149,
      "##져": 1150,
      "##O": 1151,
      "##환": 1152,
      "##했": 1153,
      "##Q": 1154,
      "##턴": 1155,
      "##프": 1156,
      "##셋": 1157,
      "##재": 1158,
      "##었": 1159,
      "##z": 1160,
      "##회": 1161,
      "##독": 1162,
      "##템": 1163,
      "##네": 1164,
      "##크": 1165,
      "##룹": 1166,
      "##w": 1167,
      "##k": 1168,
      "##롭": 1169,
      "##킷": 1170,
      "##야": 1171,
      "##일": 1172,
      "##려": 1173,
      "##웃": 1174,
      "##컨": 1175,
      "##페": 1176,
      "##강": 1177,
      "##점": 1178,
      "##헤": 1179,
      "##응": 1180,
      "##뮤": 1181,
      "##값": 1182,
      "##h": 1183,
      "##슬": 1184,
      "##롯": 1185,
      "##매": 1186,
      "##구": 1187,
      "##측": 1188,
      "##줄": 1189,
      "##섭": 1190,
      "##코": 1191,
      "##퀀": 1192,
      "##문": 1193,
      "##K": 1194,
      "##책": 1195,
      "##테": 1196,
      "##해": 1197,
      "##렵": 1198,
      "##류": 1199,
      "##립": 1200,
      "##누": 1201,
      "##넥": 1202,
      "##까": 1203,
      "##홉": 1204,
      "##망": 1205,
      "##Ｐ": 1206,
      "##Ｔ": 1207,
      "##Ｖ": 1208,
      "##피": 1209,
      "##커": 1210,
      "##발": 1211,
      "##약": 1212,
      "##든": 1213,
      "##집": 1214,
      "##음": 1215,
      "##례": 1216,
      "##댑": 1217,
      "##획": 1218,
      "##그": 1219,
      "##먼": 1220,
      "##겟": 1221,
      "##없": 1222,
      "##충": 1223,
      "##득": 1224,
      "##것": 1225,
      "##취": 1226,
      "##초": 1227,
      "##저": 1228,
      "##감": 1229,
      "##싱": 1230,
      "##X": 1231,
      "##품": 1232,
      "##퍼": 1233,
      "##종": 1234,
      "##있": 1235,
      "##뉴": 1236,
      "##켜": 1237,
      "##열": 1238,
      "##곡": 1239,
      "##교": 1240,
      "##두": 1241,
      "##딩": 1242,
      "##Ｌ": 1243,
      "##Ａ": 1244,
      "##Ｎ": 1245,
      "##루": 1246,
      "##투": 1247,
      "##핸": 1248,
      "##베": 1249,
      "##창": 1250,
      "##술": 1251,
      "##파": 1252,
      "##촘": 1253,
      "##죄": 1254,
      "##맷": 1255,
      "##격": 1256,
      "##분": 1257,
      "##탕": 1258,
      "##Ｅ": 1259,
      "##톱": 1260,
      "##객": 1261,
      "##배": 1262,
      "##엇": 1263,
      "##애": 1264,
      "##벤": 1265,
      "##목": 1266,
      "##쥴": 1267,
      "##허": 1268,
      "##헌": 1269,
      "##털": 1270,
      "##패": 1271,
      "##틸": 1272,
      "##촉": 1273,
      "##안": 1274,
      "##칭": 1275,
      "##온": 1276,
      "##질": 1277,
      "##잡": 1278,
      "##Ｂ": 1279,
      "##Ｍ": 1280,
      "##Ｓ": 1281,
      "##퓨": 1282,
      "##너": 1283,
      "##뿐": 1284,
      "##닝": 1285,
      "##변": 1286,
      "##q": 1287,
      "##앙": 1288,
      "##센": 1289,
      "##순": 1290,
      "##빠": 1291,
      "##넷": 1292,
      "##덱": 1293,
      "##롬": 1294,
      "##렴": 1295,
      "##룰": 1296,
      "##큼": 1297,
      "##램": 1298,
      "##락": 1299,
      "##춤": 1300,
      "##탐": 1301,
      "##였": 1302,
      "##Ｃ": 1303,
      "##Ｄ": 1304,
      "##슈": 1305,
      "##머": 1306,
      "##필": 1307,
      "##돌": 1308,
      "##백": 1309,
      "##퇴": 1310,
      "##냄": 1311,
      "##닷": 1312,
      "##벨": 1313,
      "##범": 1314,
      "##헐": 1315,
      "##끼": 1316,
      "##견": 1317,
      "##뎀": 1318,
      "##껴": 1319,
      "##튼": 1320,
      "##극": 1321,
      "##른": 1322,
      "##알": 1323,
      "##엘": 1324,
      "##랫": 1325,
      "##폼": 1326,
      "##채": 1327,
      "##웍": 1328,
      "##양": 1329,
      "##광": 1330,
      "##ㅌ": 1331,
      "##샷": 1332,
      "##림": 1333,
      "##께": 1334,
      "##편": 1335,
      "##째": 1336,
      "##듯": 1337,
      "##및": 1338,
      "##슐": 1339,
      "##델": 1340,
      "##본": 1341,
      "##았": 1342,
      "##란": 1343,
      "##혼": 1344,
      "##균": 1345,
      "##카": 1346,
      "##톡": 1347,
      "##학": 1348,
      "##짓": 1349,
      "##념": 1350,
      "##후": 1351,
      "##벌": 1352,
      "##찰": 1353,
      "##떠": 1354,
      "##률": 1355,
      "##착": 1356,
      "##긴": 1357,
      "##느": 1358,
      "##덤": 1359,
      "##습": 1360,
      "##닐": 1361,
      "##녀": 1362,
      "##휘": 1363,
      "##떤": 1364,
      "##움": 1365,
      "##멘": 1366,
      "##Ｒ": 1367,
      "##섬": 1368,
      "##렬": 1369,
      "##칩": 1370,
      "##첩": 1371,
      "##액": 1372,
      "##셀": 1373,
      "##깃": 1374,
      "##텟": 1375,
      "##납": 1376,
      "##쿼": 1377,
      "##때": 1378,
      "##많": 1379,
      "##즈": 1380,
      "##김": 1381,
      "##르": 1382,
      "##≥": 1383,
      "##봇": 1384,
      "##넌": 1385,
      "##Ｉ": 1386,
      "##칙": 1387,
      "##갈": 1388,
      "##외": 1389,
      "##추": 1390,
      "##믹": 1391,
      "##빈": 1392,
      "##릴": 1393,
      "##럽": 1394,
      "##폭": 1395,
      "##텍": 1396,
      "##담": 1397,
      "##층": 1398,
      "##탈": 1399,
      "##꾼": 1400,
      "##괄": 1401,
      "##닛": 1402,
      "##권": 1403,
      "##붙": 1404,
      "##론": 1405,
      "##컬": 1406,
      "##런": 1407,
      "##줌": 1408,
      "##젝": 1409,
      "##욱": 1410,
      "##롤": 1411,
      "##싸": 1412,
      "##날": 1413,
      "##염": 1414,
      "##병": 1415,
      "##j": 1416,
      "##같": 1417,
      "##육": 1418,
      "##렉": 1419,
      "##ｏ": 1420,
      "##ｍ": 1421,
      "##ｕ": 1422,
      "##ｎ": 1423,
      "##ｉ": 1424,
      "##ｃ": 1425,
      "##ａ": 1426,
      "##ｔ": 1427,
      "##밴": 1428,
      "##참": 1429,
      "##뮬": 1430,
      "##탬": 1431,
      "##≤": 1432,
      "##십": 1433,
      "##젠": 1434,
      "##풍": 1435,
      "##노": 1436,
      "##뢰": 1437,
      "##Ｘ": 1438,
      "##탑": 1439,
      "##융": 1440,
      "##못": 1441,
      "##펄": 1442,
      "##졌": 1443,
      "##굴": 1444,
      "##륨": 1445,
      "##Y": 1446,
      "##텀": 1447,
      "##칠": 1448,
      "##압": 1449,
      "##검": 1450,
      "##폴": 1451,
      "##빗": 1452,
      "##낙": 1453,
      "##J": 1454,
      "##펴": 1455,
      "##펙": 1456,
      "##럼": 1457,
      "##친": 1458,
      "##판": 1459,
      "##막": 1460,
      "##탭": 1461,
      "##닥": 1462,
      "##셔": 1463,
      "##앰": 1464,
      "##틱": 1465,
      "##슷": 1466,
      "##괴": 1467,
      "##몇": 1468,
      "##헬": 1469,
      "##귀": 1470,
      "##팟": 1471,
      "##횟": 1472,
      "##돈": 1473,
      "##잉": 1474,
      "##낸": 1475,
      "##쉽": 1476,
      "##규": 1477,
      "##엠": 1478,
      "##촬": 1479,
      "##쉬": 1480,
      "##곽": 1481,
      "##님": 1482,
      "##듀": 1483,
      "##남": 1484,
      "##켰": 1485,
      "##월": 1486,
      "##쿨": 1487,
      "##꾸": 1488,
      "##덴": 1489,
      "##꺼": 1490,
      "##낼": 1491,
      "##겨": 1492,
      "##뤄": 1493,
      "##엑": 1494,
      "##깅": 1495,
      "##익": 1496,
      "##녹": 1497,
      "##픈": 1498,
      "##쟁": 1499,
      "##쪽": 1500,
      "##럴": 1501,
      "##０": 1502,
      "##２": 1503,
      "##렇": 1504,
      "##랙": 1505,
      "##냐": 1506,
      "##켓": 1507,
      "##늬": 1508,
      "##쇄": 1509,
      "##팸": 1510,
      "##찬": 1511,
      "##°": 1512,
      "##맥": 1513,
      "##１": 1514,
      "##틀": 1515,
      "##텔": 1516,
      "##울": 1517,
      "##올": 1518,
      "##특": 1519,
      "##맨": 1520,
      "##릿": 1521,
      "##짜": 1522,
      "##혹": 1523,
      "##숙": 1524,
      "##떻": 1525,
      "##잭": 1526,
      "##렛": 1527,
      "##길": 1528,
      "##럭": 1529,
      "##뜨": 1530,
      "##씩": 1531,
      "##않": 1532,
      "##빌": 1533,
      "##о": 1534,
      "##닌": 1535,
      "##쁜": 1536,
      "##푸": 1537,
      "##럿": 1538,
      "##멀": 1539,
      "##Ｏ": 1540,
      "##협": 1541,
      "##평": 1542,
      "상기": 1543,
      "##하는": 1544,
      "##비스": 1545,
      "서비스": 1546,
      "수신": 1547,
      "방송": 1548,
      "단말": 1549,
      "정보": 1550,
      "##으로": 1551,
      "##스트": 1552,
      "##하여": 1553,
      "포함": 1554,
      "제공": 1555,
      "##캐스트": 1556,
      "##에서": 1557,
      "방법": 1558,
      "전송": 1559,
      "##텐츠": 1560,
      "단계": 1561,
      "##시지": 1562,
      "멀티": 1563,
      "메시지": 1564,
      "##이터": 1565,
      "발명": 1566,
      "##스템": 1567,
      "통신": 1568,
      "데이터": 1569,
      "정보를": 1570,
      "사용": 1571,
      "무선": 1572,
      "이동": 1573,
      "시스템": 1574,
      "##부터": 1575,
      "장치": 1576,
      "##하고": 1577,
      "##로드": 1578,
      "단말기": 1579,
      "위한": 1580,
      "사용자": 1581,
      "##하기": 1582,
      "멀티캐스트": 1583,
      "브로드": 1584,
      "서버": 1585,
      "콘텐츠": 1586,
      "##트워": 1587,
      "##트워크": 1588,
      "포함하는": 1589,
      "네트워크": 1590,
      "##로부터": 1591,
      "##되는": 1592,
      "하나": 1593,
      "MB": 1594,
      "요청": 1595,
      "채널": 1596,
      "메시지를": 1597,
      "브로드캐스트": 1598,
      "##이스": 1599,
      "이용": 1600,
      "##디어": 1601,
      "제어": 1602,
      "##지국": 1603,
      "컨텐츠": 1604,
      "서비스를": 1605,
      "발명의": 1606,
      "목적": 1607,
      "기지국": 1608,
      "송신": 1609,
      "통해": 1610,
      "제1": 1611,
      "대한": 1612,
      "##한다": 1613,
      "전송하는": 1614,
      "또는": 1615,
      "##er": 1616,
      "실시": 1617,
      "제공하는": 1618,
      "것을": 1619,
      "있다": 1620,
      "수신하는": 1621,
      "##ti": 1622,
      "위치": 1623,
      "##수의": 1624,
      "##어도": 1625,
      "적어도": 1626,
      "##통신": 1627,
      "##정보": 1628,
      "##MS": 1629,
      "하는": 1630,
      "##도록": 1631,
      "차량": 1632,
      "과정": 1633,
      "특징": 1634,
      "프로": 1635,
      "특징으로": 1636,
      "##바이스": 1637,
      "디바이스": 1638,
      "발명은": 1639,
      "있는": 1640,
      "MBS": 1641,
      "데이터를": 1642,
      "##미디어": 1643,
      "하나의": 1644,
      "멀티미디어": 1645,
      "##ca": 1646,
      "신호": 1647,
      "다른": 1648,
      "##st": 1649,
      "패킷": 1650,
      "있어": 1651,
      "선택": 1652,
      "있어서": 1653,
      "##바일": 1654,
      "모바일": 1655,
      "##상의": 1656,
      "##이션": 1657,
      "제2": 1658,
      "의해": 1659,
      "한다": 1660,
      "식별": 1661,
      "따라": 1662,
      "접속": 1663,
      "저장": 1664,
      "이동통신": 1665,
      "관한": 1666,
      "MBMS": 1667,
      "복수의": 1668,
      "##cast": 1669,
      "해당": 1670,
      "생성": 1671,
      "##들을": 1672,
      "##단말": 1673,
      "단계를": 1674,
      "그룹": 1675,
      "위해": 1676,
      "이상의": 1677,
      "것이": 1678,
      "##ce": 1679,
      "결정": 1680,
      "방법에": 1681,
      "##부를": 1682,
      "##영상": 1683,
      "구성": 1684,
      "##on": 1685,
      "시스템에서": 1686,
      "##ro": 1687,
      "##에게": 1688,
      "영상": 1689,
      "이용하여": 1690,
      "경우": 1691,
      "설정": 1692,
      "따른": 1693,
      "##장치": 1694,
      "포함한다": 1695,
      "동영상": 1696,
      "것이다": 1697,
      "전달": 1698,
      "처리": 1699,
      "##적으로": 1700,
      "과정과": 1701,
      "10": 1702,
      "##ul": 1703,
      "가능": 1704,
      "실시예": 1705,
      "영역": 1706,
      "방법은": 1707,
      "##ulti": 1708,
      "특정": 1709,
      "대응": 1710,
      "##erv": 1711,
      "수행": 1712,
      "세션": 1713,
      "가입": 1714,
      "시간": 1715,
      "방법을": 1716,
      "달성": 1717,
      "응답": 1718,
      "콘텐츠를": 1719,
      "##ice": 1720,
      "재생": 1721,
      "긴급": 1722,
      "교통": 1723,
      "지역": 1724,
      "##그램": 1725,
      "##ervice": 1726,
      "미디어": 1727,
      "##정보를": 1728,
      "##스팅": 1729,
      "IP": 1730,
      "노드": 1731,
      "##하며": 1732,
      "##케이션": 1733,
      "##디오": 1734,
      "##하도록": 1735,
      "관리": 1736,
      "휴대": 1737,
      "수신된": 1738,
      "##으로서": 1739,
      "관련": 1740,
      "##ad": 1741,
      "실시간": 1742,
      "##캐스팅": 1743,
      "프로그램": 1744,
      "인터": 1745,
      "달성하기": 1746,
      "포함된": 1747,
      "확인": 1748,
      "등록": 1749,
      "연결": 1750,
      "재난": 1751,
      "##되어": 1752,
      "이용한": 1753,
      "목적은": 1754,
      "컨텐츠를": 1755,
      "스트": 1756,
      "##들의": 1757,
      "기반": 1758,
      "##수신": 1759,
      "##레이": 1760,
      "기초": 1761,
      "클라": 1762,
      "상태": 1763,
      "각각": 1764,
      "방식": 1765,
      "##이언": 1766,
      "##road": 1767,
      "##이언트": 1768,
      "목적을": 1769,
      "##세스": 1770,
      "단말의": 1771,
      "채널을": 1772,
      "식별자": 1773,
      "##마트": 1774,
      "스마트": 1775,
      "단말이": 1776,
      "##신호": 1777,
      "광고": 1778,
      "##tion": 1779,
      "할당": 1780,
      "##하게": 1781,
      "Service": 1782,
      "계층": 1783,
      "##된다": 1784,
      "##으로부터": 1785,
      "Multi": 1786,
      "클라이언트": 1787,
      "발명에": 1788,
      "있도록": 1789,
      "##me": 1790,
      "신호를": 1791,
      "##단말기": 1792,
      "송신하는": 1793,
      "브로드캐스팅": 1794,
      "##roadcast": 1795,
      "실행": 1796,
      "출력": 1797,
      "이벤": 1798,
      "##MB": 1799,
      "이벤트": 1800,
      "다수의": 1801,
      "아이": 1802,
      "액세스": 1803,
      "해결": 1804,
      "기술": 1805,
      "디지": 1806,
      "가능한": 1807,
      "디지털": 1808,
      "디스": 1809,
      "정보에": 1810,
      "시작": 1811,
      "현재": 1812,
      "##시키": 1813,
      "##들에": 1814,
      "따르": 1815,
      "##드를": 1816,
      "문제": 1817,
      "##이트": 1818,
      "발생": 1819,
      "대응하는": 1820,
      "20": 1821,
      "게임": 1822,
      "##이블": 1823,
      "##리케이션": 1824,
      "##플리케이션": 1825,
      "##nt": 1826,
      "서버로부터": 1827,
      "서비스에": 1828,
      "따르면": 1829,
      "##플레이": 1830,
      "과정을": 1831,
      "채팅": 1832,
      "##으로써": 1833,
      "기초하여": 1834,
      "단말기에": 1835,
      "디스플레이": 1836,
      "패킷을": 1837,
      "입력": 1838,
      "##ng": 1839,
      "##에서의": 1840,
      "지원": 1841,
      "근거": 1842,
      "같은": 1843,
      "결정하는": 1844,
      "동작": 1845,
      "매핑": 1846,
      "##파수": 1847,
      "다운": 1848,
      "송수신": 1849,
      "개인": 1850,
      "##es": 1851,
      "판단": 1852,
      "12": 1853,
      "단계와": 1854,
      "가입자": 1855,
      "송출": 1856,
      "종료": 1857,
      "주파수": 1858,
      "##시스템": 1859,
      "Broadcast": 1860,
      "단말에": 1861,
      "##하면": 1862,
      "ID": 1863,
      "단말기로": 1864,
      "표시": 1865,
      "경로": 1866,
      "추출": 1867,
      "테이블": 1868,
      "수신하고": 1869,
      "사용자의": 1870,
      "해결하기": 1871,
      "Multicast": 1872,
      "제공함": 1873,
      "구간": 1874,
      "모듈": 1875,
      "핸드": 1876,
      "혹은": 1877,
      "것으로": 1878,
      "장치에": 1879,
      "시스템에": 1880,
      "위하여": 1881,
      "##or": 1882,
      "안내": 1883,
      "음성": 1884,
      "서버가": 1885,
      "포함하고": 1886,
      "센터": 1887,
      "주소": 1888,
      "통신을": 1889,
      "수단": 1890,
      "인증": 1891,
      "서버에": 1892,
      "시스템을": 1893,
      "기능": 1894,
      "시청": 1895,
      "생성하는": 1896,
      "네임": 1897,
      "##자의": 1898,
      "문제점": 1899,
      "11": 1900,
      "회의": 1901,
      "태그": 1902,
      "획득": 1903,
      "##되면": 1904,
      "##데이터": 1905,
      "인터넷": 1906,
      "여부를": 1907,
      "##방법": 1908,
      "수신한": 1909,
      "설정된": 1910,
      "##nd": 1911,
      "수신하여": 1912,
      "##ag": 1913,
      "##기를": 1914,
      "##상기": 1915,
      "단말기의": 1916,
      "내에": 1917,
      "파일": 1918,
      "##리밍": 1919,
      "스트리밍": 1920,
      "개시": 1921,
      "모드": 1922,
      "변환": 1923,
      "구비": 1924,
      "비디오": 1925,
      "주변": 1926,
      "##레임": 1927,
      "리스트": 1928,
      "##le": 1929,
      "제공하기": 1930,
      "MA": 1931,
      "프레임": 1932,
      "이동국": 1933,
      "실시예에": 1934,
      "##되고": 1935,
      "저장하는": 1936,
      "와이": 1937,
      "##먼트": 1938,
      "수행하는": 1939,
      "경보": 1940,
      "##로우": 1941,
      "무선통신": 1942,
      "UE": 1943,
      "##서버": 1944,
      "##페이스": 1945,
      "필요": 1946,
      "단말로": 1947,
      "요청을": 1948,
      "DMB": 1949,
      "우선": 1950,
      "##부와": 1951,
      "##대역": 1952,
      "##번호": 1953,
      "및상기": 1954,
      "##방송": 1955,
      "장치는": 1956,
      "##로서": 1957,
      "제공한다": 1958,
      "메시지에": 1959,
      "근거리": 1960,
      "##di": 1961,
      "목적지": 1962,
      "사고": 1963,
      "내의": 1964,
      "##뮤니": 1965,
      "단말기가": 1966,
      "문제점을": 1967,
      "핸드오": 1968,
      "커뮤니": 1969,
      "컴퓨": 1970,
      "사용자가": 1971,
      "채널에": 1972,
      "촬영": 1973,
      "플로우": 1974,
      "선택된": 1975,
      "14": 1976,
      "광대역": 1977,
      "사이": 1978,
      "연관": 1979,
      "요구": 1980,
      "중계": 1981,
      "메시지의": 1982,
      "시점": 1983,
      "전원": 1984,
      "통하여": 1985,
      "##적인": 1986,
      "##시키는": 1987,
      "제공함에": 1988,
      "것으로서": 1989,
      "##ing": 1990,
      "13": 1991,
      "그리": 1992,
      "대해": 1993,
      "단말기를": 1994,
      "제어기": 1995,
      "인터페이스": 1996,
      "발신": 1997,
      "애플리케이션": 1998,
      "##부에": 1999,
      "##들이": 2000,
      "##망을": 2001,
      "정보가": 2002,
      "15": 2003,
      "##정된": 2004,
      "##방향": 2005,
      "수신기": 2006,
      "콘텐츠의": 2007,
      "스트림": 2008,
      "16": 2009,
      "과제": 2010,
      "타겟": 2011,
      "통화": 2012,
      "##함으로써": 2013,
      "방법으로서": 2014,
      "장치를": 2015,
      "관련된": 2016,
      "이를": 2017,
      "요청하는": 2018,
      "이하": 2019,
      "##00": 2020,
      "##al": 2021,
      "##하지": 2022,
      "##거나": 2023,
      "##et": 2024,
      "##성을": 2025,
      "단말로부터": 2026,
      "다운로드": 2027,
      "MAC": 2028,
      "공유": 2029,
      "미리": 2030,
      "전화": 2031,
      "##니캐스트": 2032,
      "시스템은": 2033,
      "제어하는": 2034,
      "다자": 2035,
      "프로세": 2036,
      "결과": 2037,
      "네트워크를": 2038,
      "세트": 2039,
      "##코딩": 2040,
      "동영상을": 2041,
      "18": 2042,
      "대화": 2043,
      "##토콜": 2044,
      "프로토콜": 2045,
      "각각의": 2046,
      "자원": 2047,
      "##서비스": 2048,
      "##게이션": 2049,
      "제공받": 2050,
      "다중": 2051,
      "##비게이션": 2052,
      "장면": 2053,
      "##들은": 2054,
      "##dia": 2055,
      "17": 2056,
      "개별": 2057,
      "유니캐스트": 2058,
      "##술한": 2059,
      "서비스의": 2060,
      "패킷의": 2061,
      "위성": 2062,
      "##신호를": 2063,
      "and": 2064,
      "multi": 2065,
      "오디오": 2066,
      "텔레": 2067,
      "##re": 2068,
      "제공할": 2069,
      "경우에": 2070,
      "연관된": 2071,
      "##가능": 2072,
      "19": 2073,
      "나타": 2074,
      "이루": 2075,
      "통지": 2076,
      "##ri": 2077,
      "네트워크의": 2078,
      "네트워크에서": 2079,
      "동일": 2080,
      "소정": 2081,
      "포인": 2082,
      "단말에게": 2083,
      "장치의": 2084,
      "포함하여": 2085,
      "저장된": 2086,
      "V2": 2087,
      "제n": 2088,
      "##ation": 2089,
      "##들로": 2090,
      "차량의": 2091,
      "핸드오버": 2092,
      "수집": 2093,
      "##매틱": 2094,
      "텔레매틱": 2095,
      "텔레매틱스": 2096,
      "또한": 2097,
      "추가": 2098,
      "전송하고": 2099,
      "단말기로부터": 2100,
      "스마트폰": 2101,
      "포인트": 2102,
      "설치": 2103,
      "설명": 2104,
      "소스": 2105,
      "외부": 2106,
      "타입": 2107,
      "##링크": 2108,
      "##베이스": 2109,
      "데이터베이스": 2110,
      "서버로": 2111,
      "기반으로": 2112,
      "AP": 2113,
      "검색": 2114,
      "있으": 2115,
      "통한": 2116,
      "##모리": 2117,
      "식별자를": 2118,
      "그리고": 2119,
      "공급": 2120,
      "애드": 2121,
      "전체": 2122,
      "##메시지": 2123,
      "100": 2124,
      "내에서": 2125,
      "네비게이션": 2126,
      "상황": 2127,
      "##모듈": 2128,
      "##장치에": 2129,
      "사업": 2130,
      "연동": 2131,
      "장비": 2132,
      "존재": 2133,
      "갖는": 2134,
      "검출": 2135,
      "복수": 2136,
      "세그": 2137,
      "에서": 2138,
      "인접": 2139,
      "이동단말": 2140,
      "나타내": 2141,
      "00": 2142,
      "대상": 2143,
      "활용": 2144,
      "##재난": 2145,
      "요청에": 2146,
      "디바이스에": 2147,
      "실시예에서": 2148,
      "아이디": 2149,
      "컴퓨터": 2150,
      "자신": 2151,
      "##an": 2152,
      "제공되는": 2153,
      "메시지가": 2154,
      "교통정보": 2155,
      "CB": 2156,
      "객체": 2157,
      "다이": 2158,
      "캐스트": 2159,
      "##지를": 2160,
      "##테이션": 2161,
      "필요한": 2162,
      "커뮤니케이션": 2163,
      "인식": 2164,
      "포함할": 2165,
      "채널의": 2166,
      "목적으로": 2167,
      "기능을": 2168,
      "BC": 2169,
      "감지": 2170,
      "베어": 2171,
      "예에": 2172,
      "##시에": 2173,
      "변경": 2174,
      "##래픽": 2175,
      "##CS": 2176,
      "##순위": 2177,
      "##media": 2178,
      "우선순위": 2179,
      "프로세서": 2180,
      "베어러": 2181,
      "##차량": 2182,
      "정보와": 2183,
      "기지국을": 2184,
      "세그먼트": 2185,
      "번호": 2186,
      "어플리케이션": 2187,
      "전환": 2188,
      "##무선": 2189,
      "V2X": 2190,
      "스케": 2191,
      "트래픽": 2192,
      "콘텐츠에": 2193,
      "해당하는": 2194,
      "전달하는": 2195,
      "다양": 2196,
      "전자": 2197,
      "##ni": 2198,
      "##웨이": 2199,
      "방송을": 2200,
      "데이터에": 2201,
      "시스템의": 2202,
      "다양한": 2203,
      "양방향": 2204,
      "제공된다": 2205,
      "주기": 2206,
      "구성된": 2207,
      "주소를": 2208,
      "기기": 2209,
      "품질": 2210,
      "##ic": 2211,
      "##자료": 2212,
      "##소스": 2213,
      "상기한": 2214,
      "서버는": 2215,
      "기술적": 2216,
      "회의자료": 2217,
      "상술한": 2218,
      "##ay": 2219,
      "전송된": 2220,
      "전송을": 2221,
      "부분": 2222,
      "수신할": 2223,
      "데이터의": 2224,
      "휴대용": 2225,
      "이루어": 2226,
      "게이트": 2227,
      "리소스": 2228,
      "##제어": 2229,
      "##단계": 2230,
      "##CD": 2231,
      "서버와": 2232,
      "구성되는": 2233,
      "방식으로": 2234,
      "##데이터를": 2235,
      "동일한": 2236,
      "기록": 2237,
      "메모리": 2238,
      "코드": 2239,
      "서버를": 2240,
      "확인하는": 2241,
      "비콘": 2242,
      "센서": 2243,
      "칭함": 2244,
      "##el": 2245,
      "##자가": 2246,
      "상기와": 2247,
      "전송되는": 2248,
      "메시지는": 2249,
      "하나를": 2250,
      "생성된": 2251,
      "사업장": 2252,
      "게이트웨이": 2253,
      "대역": 2254,
      "대기": 2255,
      "전력": 2256,
      "탐색": 2257,
      "##텐트": 2258,
      "##들에게": 2259,
      "##면에": 2260,
      "포함함": 2261,
      "통신망": 2262,
      "무선단말": 2263,
      "나타내는": 2264,
      "종래": 2265,
      "##되도록": 2266,
      "##ver": 2267,
      "Wi": 2268,
      "가이": 2269,
      "특히": 2270,
      "환경": 2271,
      "전송할": 2272,
      "영상을": 2273,
      "지원하는": 2274,
      "도로": 2275,
      "요소": 2276,
      "의한": 2277,
      "적응": 2278,
      "참여": 2279,
      "##매체": 2280,
      "##ess": 2281,
      "상세": 2282,
      "자동": 2283,
      "중단": 2284,
      "##되며": 2285,
      "##TC": 2286,
      "정보의": 2287,
      "제공하는데": 2288,
      "리스트를": 2289,
      "모니": 2290,
      "상이": 2291,
      "##시켜": 2292,
      "모니터": 2293,
      "개의": 2294,
      "문자": 2295,
      "사운": 2296,
      "스테이션": 2297,
      "함께": 2298,
      "##MCS": 2299,
      "포함하며": 2300,
      "##MBMS": 2301,
      "BCMCS": 2302,
      "구현": 2303,
      "동안": 2304,
      "##이징": 2305,
      "##하거나": 2306,
      "수신되는": 2307,
      "기지국의": 2308,
      "스케줄": 2309,
      "멤버": 2310,
      "흐름": 2311,
      "##시티": 2312,
      "##하되": 2313,
      "##파이": 2314,
      "전송하기": 2315,
      "대응되는": 2316,
      "세션을": 2317,
      "응답하여": 2318,
      "와이파이": 2319,
      "service": 2320,
      "링크": 2321,
      "목록": 2322,
      "범위": 2323,
      "상응": 2324,
      "타깃": 2325,
      "통합": 2326,
      "##지는": 2327,
      "##de": 2328,
      "##퍼런": 2329,
      "정보는": 2330,
      "재생하는": 2331,
      "판단하는": 2332,
      "상이한": 2333,
      "대하여": 2334,
      "랭킹": 2335,
      "묘사": 2336,
      "분석": 2337,
      "일부": 2338,
      "헤더": 2339,
      "활성": 2340,
      "방송서비스": 2341,
      "장치와": 2342,
      "위치정보를": 2343,
      "차량에": 2344,
      "선택하는": 2345,
      "있으며": 2346,
      "기준": 2347,
      "동기": 2348,
      "오버": 2349,
      "푸시": 2350,
      "하여": 2351,
      "효율": 2352,
      "사용하여": 2353,
      "이동통신단말기": 2354,
      "기반의": 2355,
      "송출하는": 2356,
      "##age": 2357,
      "고유": 2358,
      "로컬": 2359,
      "명령": 2360,
      "비교": 2361,
      "셀룰": 2362,
      "이웃": 2363,
      "인코딩": 2364,
      "주행": 2365,
      "##MA": 2366,
      "##해서": 2367,
      "장치가": 2368,
      "기지국이": 2369,
      "로부터": 2370,
      "##도를": 2371,
      "##ow": 2372,
      "실시간으로": 2373,
      "방식의": 2374,
      "과제를": 2375,
      "예를": 2376,
      "##해재난": 2377,
      "##채널": 2378,
      "기지국에": 2379,
      "CBS": 2380,
      "분배": 2381,
      "있고": 2382,
      "절차": 2383,
      "하고": 2384,
      "행사": 2385,
      "##들과": 2386,
      "수신자": 2387,
      "기지국으로부터": 2388,
      "전화번호": 2389,
      "DCD": 2390,
      "MP": 2391,
      "메타": 2392,
      "##ment": 2393,
      "시각": 2394,
      "##대다": 2395,
      "##AN": 2396,
      "##em": 2397,
      "##ent": 2398,
      "##미터": 2399,
      "##별로": 2400,
      "방법이": 2401,
      "시간에": 2402,
      "프로그램의": 2403,
      "진행": 2404,
      "회로": 2405,
      "##스터": 2406,
      "##되지": 2407,
      "단말기와": 2408,
      "셀룰러": 2409,
      "플랫": 2410,
      "##지에": 2411,
      "##ol": 2412,
      "##화된": 2413,
      "multicast": 2414,
      "플랫폼": 2415,
      "기존": 2416,
      "베뉴": 2417,
      "안전": 2418,
      "카운": 2419,
      "화면": 2420,
      "##로부터의": 2421,
      "위치한": 2422,
      "설정하는": 2423,
      "다운링크": 2424,
      "RS": 2425,
      "구동": 2426,
      "새로": 2427,
      "형태": 2428,
      "##ile": 2429,
      "##라미터": 2430,
      "##ss": 2431,
      "제공자": 2432,
      "프로그램을": 2433,
      "간에": 2434,
      "융합": 2435,
      "조건": 2436,
      "참가": 2437,
      "##브로": 2438,
      "수신하기": 2439,
      "컨텐츠에": 2440,
      "위치를": 2441,
      "와이브로": 2442,
      "로밍": 2443,
      "않는": 2444,
      "지진": 2445,
      "장치에서": 2446,
      "TM": 2447,
      "업데": 2448,
      "이미": 2449,
      "##부에서": 2450,
      "##ob": 2451,
      "##들에서": 2452,
      "##CH": 2453,
      "##회의": 2454,
      "디바이스가": 2455,
      "영역을": 2456,
      "##ayer": 2457,
      "업데이트": 2458,
      "EMBMS": 2459,
      "보상": 2460,
      "조회": 2461,
      "파라미터": 2462,
      "학습": 2463,
      "##로의": 2464,
      "##버시티": 2465,
      "##ame": 2466,
      "##it": 2467,
      "##인지": 2468,
      "##과의": 2469,
      "##크로": 2470,
      "단말을": 2471,
      "##하고자": 2472,
      "송신된": 2473,
      "신호에": 2474,
      "선택한": 2475,
      "처리하는": 2476,
      "존재하는": 2477,
      "다이버시티": 2478,
      "21": 2479,
      "블루": 2480,
      "서로": 2481,
      "유닛": 2482,
      "이상": 2483,
      "호스트": 2484,
      "##oc": 2485,
      "##요청": 2486,
      "##투스": 2487,
      "단말기에서": 2488,
      "블루투스": 2489,
      "US": 2490,
      "상위": 2491,
      "원하는": 2492,
      "중에서": 2493,
      "최소": 2494,
      "취득": 2495,
      "페이징": 2496,
      "Multimedia": 2497,
      "001": 2498,
      "새로운": 2499,
      "유형": 2500,
      "중앙": 2501,
      "최적": 2502,
      "출력하는": 2503,
      "테이블을": 2504,
      "다자회의": 2505,
      "##rea": 2506,
      "모니터링": 2507,
      "상응하는": 2508,
      "간의": 2509,
      "받아": 2510,
      "블록": 2511,
      "시그": 2512,
      "압축": 2513,
      "음원": 2514,
      "타이": 2515,
      "멀티캐스팅": 2516,
      "통신하는": 2517,
      "제어부": 2518,
      "송신하고": 2519,
      "시그널": 2520,
      "고려": 2521,
      "교환": 2522,
      "다음": 2523,
      "동시에": 2524,
      "예약": 2525,
      "일정": 2526,
      "지시": 2527,
      "트랜": 2528,
      "##관리": 2529,
      "##SM": 2530,
      "목적이": 2531,
      "그룹에": 2532,
      "방식에": 2533,
      "브로드캐스팅하는": 2534,
      "소정의": 2535,
      "사운드": 2536,
      "layer": 2537,
      "공통": 2538,
      "라디오": 2539,
      "선별": 2540,
      "유지": 2541,
      "측면에": 2542,
      "카메": 2543,
      "##ed": 2544,
      "서비스들을": 2545,
      "단말에서": 2546,
      "기지국으로": 2547,
      "영역에": 2548,
      "##obile": 2549,
      "카메라": 2550,
      "SMS": 2551,
      "name": 2552,
      "것에": 2553,
      "들어": 2554,
      "서브": 2555,
      "일반": 2556,
      "재해재난": 2557,
      "홍보": 2558,
      "확립": 2559,
      "위치정보": 2560,
      "MS": 2561,
      "SM": 2562,
      "효과": 2563,
      "수신되면": 2564,
      "컨텐츠의": 2565,
      "컨텐츠가": 2566,
      "식별정보": 2567,
      "이동통신망": 2568,
      "시그널링": 2569,
      "SC": 2570,
      "tag": 2571,
      "결합": 2572,
      "순번": 2573,
      "어드": 2574,
      "##레스": 2575,
      "수신을": 2576,
      "이동단말기": 2577,
      "장치로부터": 2578,
      "서버의": 2579,
      "위치에": 2580,
      "생성하고": 2581,
      "시간을": 2582,
      "할당하는": 2583,
      "어드레스": 2584,
      "상에서": 2585,
      "제3": 2586,
      "지정된": 2587,
      "컨퍼런": 2588,
      "혼잡": 2589,
      "사용자에게": 2590,
      "네트워크에": 2591,
      "##essage": 2592,
      "컨퍼런스": 2593,
      "broadcast": 2594,
      "공공": 2595,
      "매크로": 2596,
      "여기": 2597,
      "일대다": 2598,
      "코어": 2599,
      "##ont": 2600,
      "확인하고": 2601,
      "연결된": 2602,
      "할당된": 2603,
      "표시하는": 2604,
      "다자간": 2605,
      "MPD": 2606,
      "접근": 2607,
      "화상": 2608,
      "##거리": 2609,
      "##되었": 2610,
      "##개의": 2611,
      "##qu": 2612,
      "결과를": 2613,
      "코드값": 2614,
      "vs": 2615,
      "비동": 2616,
      "오프": 2617,
      "원격": 2618,
      "유저": 2619,
      "있을": 2620,
      "트리": 2621,
      "##at": 2622,
      "##수단": 2623,
      "##ption": 2624,
      "##러한": 2625,
      "수신부": 2626,
      "##cation": 2627,
      "접속하여": 2628,
      "그룹을": 2629,
      "실시예는": 2630,
      "지역을": 2631,
      "##가능한": 2632,
      "RSS": 2633,
      "비동기": 2634,
      "물리": 2635,
      "바와": 2636,
      "탑재": 2637,
      "##보다": 2638,
      "##티티": 2639,
      "##om": 2640,
      "##cri": 2641,
      "제공을": 2642,
      "무선망": 2643,
      "단말기는": 2644,
      "제어부를": 2645,
      "실행되는": 2646,
      "변환하는": 2647,
      "전원을": 2648,
      "분석하여": 2649,
      "활성화": 2650,
      "트리거": 2651,
      "어느": 2652,
      "콘텐트": 2653,
      "##트롤": 2654,
      "##nti": 2655,
      "##상에서": 2656,
      "##자에게": 2657,
      "##TP": 2658,
      "##출된": 2659,
      "생성하여": 2660,
      "결정된": 2661,
      "휴대형": 2662,
      "Po": 2663,
      "사물": 2664,
      "정해": 2665,
      "##02": 2666,
      "##트를": 2667,
      "##록시": 2668,
      "따라서": 2669,
      "교통정보를": 2670,
      "기초로": 2671,
      "상태를": 2672,
      "이미지": 2673,
      "보다": 2674,
      "적용": 2675,
      "전파": 2676,
      "포맷": 2677,
      "프록시": 2678,
      "후속": 2679,
      "##wor": 2680,
      "##cess": 2681,
      "아이피": 2682,
      "경로를": 2683,
      "태그의": 2684,
      "##etwor": 2685,
      "##cription": 2686,
      "##etwork": 2687,
      "분산": 2688,
      "사전": 2689,
      "않은": 2690,
      "유무선": 2691,
      "타임": 2692,
      "##ar": 2693,
      "##표시": 2694,
      "##yst": 2695,
      "##받아": 2696,
      "##주기": 2697,
      "##교정": 2698,
      "서비스와": 2699,
      "통신망을": 2700,
      "무선신호를": 2701,
      "요청한": 2702,
      "게임의": 2703,
      "추출하는": 2704,
      "##ystem": 2705,
      "Pro": 2706,
      "내장": 2707,
      "속한": 2708,
      "알림": 2709,
      "엔티티": 2710,
      "임시": 2711,
      "임계": 2712,
      "제안": 2713,
      "판독": 2714,
      "푸쉬": 2715,
      "##부의": 2716,
      "##중인": 2717,
      "##받는": 2718,
      "##슈머": 2719,
      "방송하는": 2720,
      "사용되는": 2721,
      "영상표시": 2722,
      "가능하게": 2723,
      "획득하는": 2724,
      "거리": 2725,
      "방향": 2726,
      "부가": 2727,
      "조작": 2728,
      "통보": 2729,
      "##선택": 2730,
      "##ur": 2731,
      "수신이": 2732,
      "수신하도록": 2733,
      "장치로": 2734,
      "요청된": 2735,
      "기지국과": 2736,
      "디바이스의": 2737,
      "##장치의": 2738,
      "아이템": 2739,
      "구간의": 2740,
      "커뮤니티": 2741,
      "동기화": 2742,
      "30": 2743,
      "검사": 2744,
      "방지": 2745,
      "비상": 2746,
      "유휴": 2747,
      "있게": 2748,
      "체크": 2749,
      "컴포": 2750,
      "형성": 2751,
      "##시킬": 2752,
      "##정하는": 2753,
      "##ne": 2754,
      "##ub": 2755,
      "##GI": 2756,
      "##코드를": 2757,
      "방송형": 2758,
      "단계로서": 2759,
      "기지국은": 2760,
      "송신되는": 2761,
      "위해서": 2762,
      "각각에": 2763,
      "근거하여": 2764,
      "인터페이스를": 2765,
      "설치된": 2766,
      "TMGI": 2767,
      "타이머": 2768,
      "여기서": 2769,
      "##트롤러": 2770,
      "컴포넌": 2771,
      "MC": 2772,
      "라우": 2773,
      "레이": 2774,
      "이후": 2775,
      "존에": 2776,
      "착신": 2777,
      "캐시": 2778,
      "##20": 2779,
      "##ID": 2780,
      "##toc": 2781,
      "##자를": 2782,
      "##ccess": 2783,
      "네트워크로부터": 2784,
      "##ting": 2785,
      "##장치를": 2786,
      "##장치가": 2787,
      "지역의": 2788,
      "지역에": 2789,
      "##escription": 2790,
      "120": 2791,
      "추출된": 2792,
      "컴퓨팅": 2793,
      "환경에서": 2794,
      "##tocol": 2795,
      "동적": 2796,
      "배송": 2797,
      "없이": 2798,
      "연속": 2799,
      "##용을": 2800,
      "##티브": 2801,
      "##기기": 2802,
      "단말과": 2803,
      "수단을": 2804,
      "목표": 2805,
      "배포": 2806,
      "밴드를": 2807,
      "않고": 2808,
      "이러한": 2809,
      "지국": 2810,
      "##관제": 2811,
      "##TE": 2812,
      "영역의": 2813,
      "재난방송": 2814,
      "제공함으로써": 2815,
      "##ort": 2816,
      "사이의": 2817,
      "##메시지를": 2818,
      "포함함을": 2819,
      "중앙관제": 2820,
      "SMD": 2821,
      "정해진": 2822,
      "MTC": 2823,
      "UW": 2824,
      "레이트": 2825,
      "마스터": 2826,
      "분류": 2827,
      "수도": 2828,
      "자율": 2829,
      "중인": 2830,
      "출석": 2831,
      "컨슈머": 2832,
      "패키": 2833,
      "하기": 2834,
      "현황": 2835,
      "협력": 2836,
      "##이브": 2837,
      "발명이": 2838,
      "위치하는": 2839,
      "관리하는": 2840,
      "아이들": 2841,
      "200": 2842,
      "과제는": 2843,
      "가이드": 2844,
      "가이드를": 2845,
      "USB": 2846,
      "UWB": 2847,
      "26": 2848,
      "가장": 2849,
      "되는": 2850,
      "역할": 2851,
      "재선택": 2852,
      "##low": 2853,
      "통신시스템": 2854,
      "입력된": 2855,
      "구간에": 2856,
      "플로우를": 2857,
      "자신이": 2858,
      "##차량의": 2859,
      "트리거링": 2860,
      "24": 2861,
      "RTC": 2862,
      "flow": 2863,
      "구축": 2864,
      "매체": 2865,
      "보호": 2866,
      "부여": 2867,
      "스캔": 2868,
      "슬롯": 2869,
      "코드를": 2870,
      "##시간": 2871,
      "##부는": 2872,
      "##비저": 2873,
      "##FN": 2874,
      "##fi": 2875,
      "단계는": 2876,
      "시스템이": 2877,
      "차량간": 2878,
      "프로비저": 2879,
      "파일을": 2880,
      "주기적으로": 2881,
      "Protocol": 2882,
      "컴포넌트": 2883,
      "RTCP": 2884,
      "프로비저닝": 2885,
      "노래": 2886,
      "대체": 2887,
      "릴레이": 2888,
      "무인": 2889,
      "변조": 2890,
      "부착": 2891,
      "정의": 2892,
      "텍스트": 2893,
      "필드": 2894,
      "##AS": 2895,
      "##전송": 2896,
      "##위치": 2897,
      "##ser": 2898,
      "##PS": 2899,
      "##구성": 2900,
      "단말들": 2901,
      "통해서": 2902,
      "디바이스로부터": 2903,
      "이동통신망을": 2904,
      "##신호에": 2905,
      "개시된다": 2906,
      "프레임의": 2907,
      "스케줄링": 2908,
      "TV": 2909,
      "tri": 2910,
      "가용": 2911,
      "갱신": 2912,
      "기관": 2913,
      "매칭": 2914,
      "선박": 2915,
      "신청": 2916,
      "알리": 2917,
      "직접": 2918,
      "초기": 2919,
      "##전을": 2920,
      "##gg": 2921,
      "서비스가": 2922,
      "##ering": 2923,
      "차량으로부터": 2924,
      "디바이스와": 2925,
      "등록된": 2926,
      "동작을": 2927,
      "발신자": 2928,
      "상황을": 2929,
      "##ell": 2930,
      "효율적으로": 2931,
      "메타데이터": 2932,
      "최소화": 2933,
      "고려하여": 2934,
      "trigg": 2935,
      "triggering": 2936,
      "50": 2937,
      "51": 2938,
      "계산": 2939,
      "높은": 2940,
      "모든": 2941,
      "제한": 2942,
      "중에": 2943,
      "지정": 2944,
      "##함에": 2945,
      "##리지": 2946,
      "##Bro": 2947,
      "##중계": 2948,
      "##처리": 2949,
      "##ction": 2950,
      "##se": 2951,
      "##발생": 2952,
      "##탐색": 2953,
      "수신될": 2954,
      "네트워크와": 2955,
      "프로필": 2956,
      "디바이스는": 2957,
      "식별정보를": 2958,
      "접속을": 2959,
      "##rol": 2960,
      "송수신하는": 2961,
      "110": 2962,
      "핸드오프": 2963,
      "스트림을": 2964,
      "WiBro": 2965,
      "##ontrol": 2966,
      "31": 2967,
      "Re": 2968,
      "Uni": 2969,
      "같이": 2970,
      "레벨": 2971,
      "만족": 2972,
      "바람": 2973,
      "방통": 2974,
      "삽입": 2975,
      "수정": 2976,
      "없는": 2977,
      "패치": 2978,
      "향상": 2979,
      "##고리": 2980,
      "##리어": 2981,
      "##ac": 2982,
      "##기록": 2983,
      "##상황": 2984,
      "##경보": 2985,
      "##차로": 2986,
      "##영역": 2987,
      "##융합": 2988,
      "수신단": 2989,
      "방송국": 2990,
      "제공방법": 2991,
      "전송한": 2992,
      "네트워크상에서": 2993,
      "요청이": 2994,
      "식별하는": 2995,
      "등록을": 2996,
      "등록하는": 2997,
      "디스플레이하는": 2998,
      "##하면서": 2999,
      "수단에": 3000,
      "다중매체": 3001,
      "자신의": 3002,
      "자동으로": 3003,
      "PoC": 3004,
      "바람직": 3005,
      "방통융합": 3006,
      "AC": 3007,
      "IMS": 3008,
      "Man": 3009,
      "단일": 3010,
      "배치": 3011,
      "손실": 3012,
      "유선": 3013,
      "전에": 3014,
      "체형": 3015,
      "후에": 3016,
      "##en": 3017,
      "##in": 3018,
      "##th": 3019,
      "##프트": 3020,
      "##까지": 3021,
      "##안전": 3022,
      "단말은": 3023,
      "포함하되": 3024,
      "통신부": 3025,
      "네트워크로": 3026,
      "이용하는": 3027,
      "위치와": 3028,
      "디바이스로": 3029,
      "디바이스를": 3030,
      "선택하고": 3031,
      "영상기록": 3032,
      "자원을": 3033,
      "사업장을": 3034,
      "적응형": 3035,
      "절차를": 3036,
      "400": 3037,
      "ECH": 3038,
      "Int": 3039,
      "SI": 3040,
      "값을": 3041,
      "상호": 3042,
      "재포": 3043,
      "컨텐트": 3044,
      "콘트롤러": 3045,
      "파악": 3046,
      "##으면": 3047,
      "##성에": 3048,
      "##이고": 3049,
      "##대기": 3050,
      "##버타": 3051,
      "##기지국": 3052,
      "##TV": 3053,
      "##음을": 3054,
      "구성하는": 3055,
      "우선적으로": 3056,
      "촬영지": 3057,
      "multimedia": 3058,
      "애드버타": 3059,
      "무선단말로": 3060,
      "방송서비스를": 3061,
      "하여금": 3062,
      "트랜스": 3063,
      "일반적으로": 3064,
      "재포맷": 3065,
      "PS": 3066,
      "re": 3067,
      "기기를": 3068,
      "나머": 3069,
      "분할": 3070,
      "속도": 3071,
      "양태": 3072,
      "엘리": 3073,
      "재구성": 3074,
      "재탐색": 3075,
      "정합": 3076,
      "조정": 3077,
      "조합": 3078,
      "증가": 3079,
      "지리": 3080,
      "커버": 3081,
      "##전력": 3082,
      "##도의": 3083,
      "##and": 3084,
      "##인터": 3085,
      "##없이": 3086,
      "서비스들에": 3087,
      "방송수신": 3088,
      "포함되는": 3089,
      "이동체": 3090,
      "시스템과": 3091,
      "있는지": 3092,
      "접속한": 3093,
      "102": 3094,
      "실시예들에서": 3095,
      "노드의": 3096,
      "관리자": 3097,
      "기반하여": 3098,
      "아이디를": 3099,
      "이루어진": 3100,
      "임계값": 3101,
      "나머지": 3102,
      "엘리먼트": 3103,
      "40": 3104,
      "message": 3105,
      "가진": 3106,
      "감소": 3107,
      "개설": 3108,
      "서빙": 3109,
      "스피": 3110,
      "안출된": 3111,
      "의하여": 3112,
      "이와": 3113,
      "작동": 3114,
      "##시예": 3115,
      "##의의": 3116,
      "##실시예": 3117,
      "##고자": 3118,
      "##NB": 3119,
      "이동성": 3120,
      "사용자들의": 3121,
      "네트워크가": 3122,
      "목적들을": 3123,
      "접속된": 3124,
      "IPTV": 3125,
      "노드를": 3126,
      "노드가": 3127,
      "##하게는": 3128,
      "파일럿": 3129,
      "트래픽을": 3130,
      "순번대기": 3131,
      "패키지": 3132,
      "스피커": 3133,
      "순번대기시스템": 3134,
      "BM": 3135,
      "GPS": 3136,
      "PL": 3137,
      "견지에": 3138,
      "경기": 3139,
      "교차로": 3140,
      "구조": 3141,
      "낭비": 3142,
      "디코딩": 3143,
      "유효": 3144,
      "이어": 3145,
      "정밀": 3146,
      "제4": 3147,
      "집합": 3148,
      "해제": 3149,
      "##상에": 3150,
      "##에서는": 3151,
      "전송하여": 3152,
      "송신을": 3153,
      "##ern": 3154,
      "##시키기": 3155,
      "수단과": 3156,
      "모드에서": 3157,
      "구비하는": 3158,
      "프레임을": 3159,
      "제공받아": 3160,
      "활용하여": 3161,
      "Intern": 3162,
      "Tx": 3163,
      "mobile": 3164,
      "가지는": 3165,
      "반복": 3166,
      "받는": 3167,
      "속하는": 3168,
      "수를": 3169,
      "시퀀": 3170,
      "안테": 3171,
      "클립": 3172,
      "##도가": 3173,
      "##미널": 3174,
      "##sting": 3175,
      "##경로": 3176,
      "##점이": 3177,
      "제공하고": 3178,
      "사용자와": 3179,
      "서버에서": 3180,
      "송신하기": 3181,
      "##casting": 3182,
      "결정하고": 3183,
      "수행하고": 3184,
      "문제가": 3185,
      "송수신기": 3186,
      "ID를": 3187,
      "추출하고": 3188,
      "모듈로": 3189,
      "센터로": 3190,
      "촬영된": 3191,
      "세트를": 3192,
      "명령을": 3193,
      "카운트": 3194,
      "##ity": 3195,
      "##qui": 3196,
      "시퀀스": 3197,
      "안테나": 3198,
      "22": 3199,
      "description": 3200,
      "경고": 3201,
      "박스": 3202,
      "보유": 3203,
      "운용": 3204,
      "이전": 3205,
      "지속": 3206,
      "캐리어": 3207,
      "##제공": 3208,
      "##주행": 3209,
      "##헤드": 3210,
      "##문자": 3211,
      "브로드캐스트와": 3212,
      "송신하도록": 3213,
      "##정보에": 3214,
      "저장하고": 3215,
      "구성되고": 3216,
      "확인하여": 3217,
      "획득된": 3218,
      "모드로": 3219,
      "제공받을": 3220,
      "수집된": 3221,
      "이루어지는": 3222,
      "오버헤드": 3223,
      "VM": 3224,
      "WSM": 3225,
      "거쳐": 3226,
      "반송": 3227,
      "비트": 3228,
      "선호": 3229,
      "실무": 3230,
      "으로": 3231,
      "자막": 3232,
      "해설": 3233,
      "##MM": 3234,
      "##MN": 3235,
      "##드백": 3236,
      "##ime": 3237,
      "##NC": 3238,
      "##자에": 3239,
      "##어진": 3240,
      "##들로부터": 3241,
      "##ran": 3242,
      "##ct": 3243,
      "##간의": 3244,
      "##EE": 3245,
      "##결과": 3246,
      "##주는": 3247,
      "##파일": 3248,
      "전송하도록": 3249,
      "사용자에": 3250,
      "네트워크에서의": 3251,
      "신호의": 3252,
      "결정에": 3253,
      "103": 3254,
      "방식을": 3255,
      "센터가": 3256,
      "사이에": 3257,
      "프로세싱": 3258,
      "메타데이터를": 3259,
      "일정표": 3260,
      "라우터": 3261,
      "자율주행": 3262,
      "PLMN": 3263,
      "Internet": 3264,
      "##rans": 3265,
      "Ch": 3266,
      "강의": 3267,
      "기본": 3268,
      "내용을": 3269,
      "등을": 3270,
      "아니": 3271,
      "자녀": 3272,
      "전술한": 3273,
      "천이": 3274,
      "하위": 3275,
      "##함을": 3276,
      "##이나": 3277,
      "##원의": 3278,
      "##ion": 3279,
      "##상이": 3280,
      "##다는": 3281,
      "##설정": 3282,
      "##TA": 3283,
      "신호가": 3284,
      "저장매체": 3285,
      "106": 3286,
      "클라이언트측": 3287,
      "이벤트에": 3288,
      "기술에": 3289,
      "발생하는": 3290,
      "활용한": 3291,
      "부분을": 3292,
      "요소를": 3293,
      "전화번호를": 3294,
      "파라미터를": 3295,
      "음원을": 3296,
      "탑재용": 3297,
      "부착된": 3298,
      "알리는": 3299,
      "27": 3300,
      "BS": 3301,
      "Cell": 3302,
      "가상": 3303,
      "가령": 3304,
      "구체": 3305,
      "기법": 3306,
      "망을": 3307,
      "발송": 3308,
      "부모": 3309,
      "상대": 3310,
      "여러": 3311,
      "육상": 3312,
      "음영": 3313,
      "임의의": 3314,
      "작성": 3315,
      "전국": 3316,
      "측정": 3317,
      "터미널": 3318,
      "포트": 3319,
      "허용": 3320,
      "##이크": 3321,
      "##30": 3322,
      "##우드": 3323,
      "##송신": 3324,
      "##등록": 3325,
      "##받은": 3326,
      "##추적": 3327,
      "포함한": 3328,
      "포함시켜": 3329,
      "방법들": 3330,
      "메시지들을": 3331,
      "제1무선": 3332,
      "위치추적": 3333,
      "프로파일": 3334,
      "저장되어": 3335,
      "시스템에서의": 3336,
      "104": 3337,
      "긴급정보": 3338,
      "클라우드": 3339,
      "기술의": 3340,
      "모듈을": 3341,
      "##orm": 3342,
      "음성신호": 3343,
      "경보시스템": 3344,
      "그리드": 3345,
      "상세하게는": 3346,
      "비교하여": 3347,
      "##enter": 3348,
      "홍보하기": 3349,
      "##omm": 3350,
      "내장된": 3351,
      "연속성을": 3352,
      "바람직한": 3353,
      "지리적": 3354,
      "25": 3355,
      "Control": 3356,
      "DV": 3357,
      "GW": 3358,
      "Mobile": 3359,
      "RAN": 3360,
      "eNB": 3361,
      "관계": 3362,
      "기간": 3363,
      "발견": 3364,
      "버퍼": 3365,
      "보고": 3366,
      "실제": 3367,
      "으로부터": 3368,
      "진입": 3369,
      "함수": 3370,
      "##11": 3371,
      "##um": 3372,
      "##율을": 3373,
      "##므로": 3374,
      "수신한다": 3375,
      "수신하면": 3376,
      "정보로": 3377,
      "사용하는": 3378,
      "콘텐츠와": 3379,
      "디바이스들에": 3380,
      "멀티미디어를": 3381,
      "의해서": 3382,
      "식별하기": 3383,
      "MBMS를": 3384,
      "관리부": 3385,
      "클라이언트가": 3386,
      "##denti": 3387,
      "##ate": 3388,
      "검사하는": 3389,
      "DVB": 3390,
      "Access": 3391,
      "Broad": 3392,
      "pro": 3393,
      "권한": 3394,
      "모뎀": 3395,
      "셀에": 3396,
      "음악": 3397,
      "인가": 3398,
      "일실시예": 3399,
      "자기": 3400,
      "장애": 3401,
      "전용": 3402,
      "절대": 3403,
      "지상": 3404,
      "참조": 3405,
      "케어": 3406,
      "피드백": 3407,
      "하며": 3408,
      "##보기": 3409,
      "##pe": 3410,
      "##form": 3411,
      "##언권": 3412,
      "##소에": 3413,
      "상기의": 3414,
      "수신하며": 3415,
      "전송하며": 3416,
      "시스템으로서": 3417,
      "채널등록": 3418,
      "송신기": 3419,
      "디바이스들": 3420,
      "재생을": 3421,
      "지역정보": 3422,
      "휴대폰": 3423,
      "연결을": 3424,
      "광고를": 3425,
      "##단말기를": 3426,
      "이벤트를": 3427,
      "입력을": 3428,
      "주파수를": 3429,
      "테이블에": 3430,
      "음성경보": 3431,
      "구비된": 3432,
      "MAP": 3433,
      "130": 3434,
      "제어기로": 3435,
      "수집하는": 3436,
      "부분적으로": 3437,
      "종래의": 3438,
      "Tx존": 3439,
      "32": 3440,
      "300": 3441,
      "ES": 3442,
      "ad": 3443,
      "network": 3444,
      "uni": 3445,
      "기회": 3446,
      "길이": 3447,
      "랜덤": 3448,
      "발언권": 3449,
      "상에": 3450,
      "속성": 3451,
      "숫자": 3452,
      "억세스": 3453,
      "응용": 3454,
      "의하면": 3455,
      "적합": 3456,
      "정확": 3457,
      "충돌": 3458,
      "패턴": 3459,
      "##92": 3460,
      "##75": 3461,
      "##되게": 3462,
      "##ou": 3463,
      "##up": 3464,
      "##화면": 3465,
      "수신대": 3466,
      "단말들로": 3467,
      "통신이": 3468,
      "무선인터": 3469,
      "채널이": 3470,
      "차량을": 3471,
      "MBSFN": 3472,
      "그룹의": 3473,
      "##roup": 3474,
      "특정의": 3475,
      "수행하기": 3476,
      "연결되어": 3477,
      "실행하는": 3478,
      "출력을": 3479,
      "기술을": 3480,
      "발생할": 3481,
      "송수신할": 3482,
      "개인회": 3483,
      "시청자": 3484,
      "##방법에": 3485,
      "무선통신을": 3486,
      "##서버로부터": 3487,
      "스마트폰을": 3488,
      "데이터베이스에서": 3489,
      "Manag": 3490,
      "거쳐서": 3491,
      "아니라": 3492,
      "구체적으로": 3493,
      "41": 3494,
      "46": 3495,
      "Con": 3496,
      "HT": 3497,
      "LE": 3498,
      "M2": 3499,
      "RF": 3500,
      "RK": 3501,
      "eB": 3502,
      "to": 3503,
      "구역": 3504,
      "구분": 3505,
      "낙찰": 3506,
      "녹음": 3507,
      "능력": 3508,
      "모드를": 3509,
      "미팅": 3510,
      "베이스": 3511,
      "별도의": 3512,
      "비용": 3513,
      "상의": 3514,
      "실패": 3515,
      "업링크": 3516,
      "영상의": 3517,
      "요가": 3518,
      "용량": 3519,
      "육성": 3520,
      "응신": 3521,
      "인한": 3522,
      "##지역": 3523,
      "##59": 3524,
      "##LE": 3525,
      "##af": 3526,
      "##ig": 3527,
      "##ode": 3528,
      "##EL": 3529,
      "##영상의": 3530,
      "##해야": 3531,
      "##노드": 3532,
      "전송한다": 3533,
      "발명에서는": 3534,
      "콘텐츠별": 3535,
      "브로드캐스트를": 3536,
      "MBS를": 3537,
      "신호는": 3538,
      "신호장치에": 3539,
      "MBMS에": 3540,
      "##one": 3541,
      "전달을": 3542,
      "처리를": 3543,
      "처리부": 3544,
      "수행할": 3545,
      "세션의": 3546,
      "긴급재난": 3547,
      "지역별": 3548,
      "재난안전": 3549,
      "ID가": 3550,
      "개시한다": 3551,
      "구비한": 3552,
      "이동국의": 3553,
      "경보음": 3554,
      "사이니": 3555,
      "이루고자": 3556,
      "검색된": 3557,
      "객체가": 3558,
      "탐색된": 3559,
      "참여자": 3560,
      "지진발생": 3561,
      "MCID": 3562,
      "ESG": 3563,
      "Manager": 3564,
      "HTTP": 3565,
      "eBM": 3566,
      "Network": 3567,
      "Qo": 3568,
      "System": 3569,
      "Sub": 3570,
      "관심": 3571,
      "그에": 3572,
      "때문": 3573,
      "물체": 3574,
      "반영": 3575,
      "버스트": 3576,
      "스펙": 3577,
      "예정": 3578,
      "케이블": 3579,
      "클러": 3580,
      "##에는": 3581,
      "##트럼": 3582,
      "##SN": 3583,
      "##하였": 3584,
      "##is": 3585,
      "##na": 3586,
      "##위로": 3587,
      "##라는": 3588,
      "##TS": 3589,
      "##출하는": 3590,
      "##크립": 3591,
      "##ＭＢ": 3592,
      "수신감": 3593,
      "장치로서": 3594,
      "사용자들": 3595,
      "사용자로부터": 3596,
      "서버에게": 3597,
      "송신한다": 3598,
      "과정이": 3599,
      "107": 3600,
      "세션이": 3601,
      "세션에": 3602,
      "노드에": 3603,
      "확인한": 3604,
      "확인할": 3605,
      "출력되는": 3606,
      "지원하기": 3607,
      "변환된": 3608,
      "요구되는": 3609,
      "대해서": 3610,
      "프로토콜의": 3611,
      "데이터베이스에": 3612,
      "인접한": 3613,
      "기존의": 3614,
      "카운팅": 3615,
      "조건을": 3616,
      "참가자": 3617,
      "최적경로": 3618,
      "##교정관리": 3619,
      "제안된": 3620,
      "역할을": 3621,
      "노래반": 3622,
      "이어보기": 3623,
      "스펙트럼": 3624,
      "클러스터": 3625,
      "23": 3626,
      "28": 3627,
      "29": 3628,
      "36": 3629,
      "42": 3630,
      "8비": 3631,
      "DB": 3632,
      "OTA": 3633,
      "group": 3634,
      "대의": 3635,
      "더욱": 3636,
      "들면": 3637,
      "등의": 3638,
      "레퍼런": 3639,
      "로서": 3640,
      "보조": 3641,
      "분리": 3642,
      "사람": 3643,
      "신속": 3644,
      "야구": 3645,
      "이기": 3646,
      "충전": 3647,
      "탑승": 3648,
      "투사": 3649,
      "##50": 3650,
      "##하다": 3651,
      "##호화": 3652,
      "##edia": 3653,
      "##ir": 3654,
      "##ide": 3655,
      "##ty": 3656,
      "##유형": 3657,
      "##메인": 3658,
      "##접속": 3659,
      "##폰더": 3660,
      "수신에": 3661,
      "방송유형": 3662,
      "제공자의": 3663,
      "이동을": 3664,
      "하나는": 3665,
      "요청하고": 3666,
      "채널들": 3667,
      "이용되는": 3668,
      "위치에서": 3669,
      "디바이스에서": 3670,
      "이동통신단말": 3671,
      "특정한": 3672,
      "응답으로": 3673,
      "휴대단말기": 3674,
      "프로그램에": 3675,
      "상태에": 3676,
      "클라이언트로부터": 3677,
      "게임을": 3678,
      "판단하고": 3679,
      "##시스템에": 3680,
      "센터로부터": 3681,
      "##방법을": 3682,
      "스트리밍데이터": 3683,
      "구비하여": 3684,
      "##서버에": 3685,
      "경우에는": 3686,
      "대상으로": 3687,
      "헤더를": 3688,
      "형태로": 3689,
      "어드레스를": 3690,
      "레이저": 3691,
      "##ack": 3692,
      "트랜스폰더": 3693,
      "커버리지": 3694,
      "M2M": 3695,
      "낙찰된": 3696,
      "때문에": 3697,
      "8비트": 3698,
      "레퍼런싱": 3699,
      "이기종": 3700,
      "33": 3701,
      "44": 3702,
      "DR": 3703,
      "EMM": 3704,
      "FL": 3705,
      "Message": 3706,
      "공개": 3707,
      "군집": 3708,
      "밴드": 3709,
      "보장": 3710,
      "사설": 3711,
      "셀의": 3712,
      "심볼": 3713,
      "여부에": 3714,
      "용도": 3715,
      "윈도": 3716,
      "지연": 3717,
      "지그": 3718,
      "최대": 3719,
      "통제": 3720,
      "특성에": 3721,
      "표준": 3722,
      "하도록": 3723,
      "##lic": 3724,
      "##상태": 3725,
      "##자로부터": 3726,
      "##과정": 3727,
      "##출력": 3728,
      "##웨어": 3729,
      "수신중": 3730,
      "수신측": 3731,
      "수신요청": 3732,
      "방송된": 3733,
      "방송데이터를": 3734,
      "단말장치": 3735,
      "데이터가": 3736,
      "요청하여": 3737,
      "이용해서": 3738,
      "##통신망": 3739,
      "전달하기": 3740,
      "109": 3741,
      "가입한": 3742,
      "달성된다": 3743,
      "교통상황": 3744,
      "지역에서": 3745,
      "클라이언트를": 3746,
      "가입자의": 3747,
      "표시하고": 3748,
      "추출하여": 3749,
      "획득하고": 3750,
      "이동국에": 3751,
      "이동국으로": 3752,
      "세트의": 3753,
      "검색하고": 3754,
      "상황에": 3755,
      "##ann": 3756,
      "감지하는": 3757,
      "##very": 3758,
      "기준으로": 3759,
      "효율적인": 3760,
      "형태를": 3761,
      "조건에": 3762,
      "서브셋": 3763,
      "체크하는": 3764,
      "타이머를": 3765,
      "재난방송정보": 3766,
      "가용성": 3767,
      "개인회원의": 3768,
      "경보음과": 3769,
      "지그비": 3770,
      "000": 3771,
      "2차": 3772,
      "34": 3773,
      "47": 3774,
      "BLE": 3775,
      "Center": 3776,
      "LMA": 3777,
      "RNC": 3778,
      "가변": 3779,
      "각종": 3780,
      "계속": 3781,
      "고속": 3782,
      "광역": 3783,
      "구매": 3784,
      "국지": 3785,
      "기억": 3786,
      "메뉴": 3787,
      "복조": 3788,
      "복구": 3789,
      "사이트": 3790,
      "않으면": 3791,
      "액티브": 3792,
      "에러": 3793,
      "영화": 3794,
      "예컨": 3795,
      "완료": 3796,
      "저전력": 3797,
      "주요": 3798,
      "주어진": 3799,
      "중첩": 3800,
      "최신": 3801,
      "합성": 3802,
      "ＤＭＢ": 3803,
      "##성이": 3804,
      "##10": 3805,
      "##IP": 3806,
      "##대로": 3807,
      "##기술": 3808,
      "##uni": 3809,
      "##BS": 3810,
      "##pment": 3811,
      "##마다": 3812,
      "##방식": 3813,
      "##DP": 3814,
      "##박스": 3815,
      "##분석": 3816,
      "##순번": 3817,
      "##듀서": 3818,
      "방송망": 3819,
      "사용될": 3820,
      "차량이": 3821,
      "프로듀서": 3822,
      "식별된": 3823,
      "구성하고": 3824,
      "긴급차량": 3825,
      "식별자에": 3826,
      "브로드캐스팅용": 3827,
      "이벤트의": 3828,
      "문제를": 3829,
      "종료를": 3830,
      "추출한": 3831,
      "회의를": 3832,
      "이동국이": 3833,
      "사이에서": 3834,
      "제어기와": 3835,
      "발신하는": 3836,
      "통화를": 3837,
      "프로토콜을": 3838,
      "제공받은": 3839,
      "장면의": 3840,
      "검색하는": 3841,
      "복수개의": 3842,
      "프로세서를": 3843,
      "품질을": 3844,
      "메모리에": 3845,
      "대기순번": 3846,
      "무선단말에": 3847,
      "사운드를": 3848,
      "행사와": 3849,
      "참가자의": 3850,
      "이상을": 3851,
      "결합된": 3852,
      "코드값과": 3853,
      "물리채널": 3854,
      "판독가능": 3855,
      "착신지": 3856,
      "지국장치": 3857,
      "Unicast": 3858,
      "콘트롤러가": 3859,
      "재구성하는": 3860,
      "순번대기시스템이": 3861,
      "##quipment": 3862,
      "##ommuni": 3863,
      "적합한": 3864,
      "수신대상이": 3865,
      "무선인터페이스": 3866,
      "##ELL": 3867,
      "긴급재난문자": 3868,
      "사이니지": 3869,
      "노래반주기": 3870,
      "예컨대": 3871,
      "##ommunication": 3872,
      "1차": 3873,
      "38": 3874,
      "5G": 3875,
      "70": 3876,
      "92": 3877,
      "User": 3878,
      "area": 3879,
      "over": 3880,
      "고정": 3881,
      "공인": 3882,
      "끊김": 3883,
      "내부": 3884,
      "라이브": 3885,
      "로라": 3886,
      "받은": 3887,
      "성공": 3888,
      "실현": 3889,
      "씨드": 3890,
      "엔터": 3891,
      "오락": 3892,
      "적절": 3893,
      "추적": 3894,
      "커넥": 3895,
      "피어": 3896,
      "해지": 3897,
      "확보": 3898,
      "후보": 3899,
      "##IS": 3900,
      "##il": 3901,
      "##mic": 3902,
      "##yna": 3903,
      "##ve": 3904,
      "##라도": 3905,
      "##간에": 3906,
      "##CP": 3907,
      "##UTE": 3908,
      "##hic": 3909,
      "단말들에게": 3910,
      "통신에": 3911,
      "통신장치": 3912,
      "네트워크는": 3913,
      "채널정보": 3914,
      "제어를": 3915,
      "송신할": 3916,
      "선택적으로": 3917,
      "결정하기": 3918,
      "설정하고": 3919,
      "대응하여": 3920,
      "연결이": 3921,
      "상태로": 3922,
      "출력할": 3923,
      "센터와": 3924,
      "인증을": 3925,
      "문제점이": 3926,
      "연동하는": 3927,
      "연동하여": 3928,
      "번호에": 3929,
      "종래기술": 3930,
      "링크를": 3931,
      "USD": 3932,
      "##ublic": 3933,
      "##고리즘": 3934,
      "Broadcasting": 3935,
      "Subs": 3936,
      "FLUTE": 3937,
      "통제국": 3938,
      "오락방송": 3939,
      "##ynamic": 3940,
      "37": 3941,
      "43": 3942,
      "90": 3943,
      "ME": 3944,
      "NA": 3945,
      "TCP": 3946,
      "identi": 3947,
      "user": 3948,
      "걸쳐": 3949,
      "단축": 3950,
      "동등": 3951,
      "버전": 3952,
      "불특": 3953,
      "신체": 3954,
      "엔드": 3955,
      "용이": 3956,
      "일련": 3957,
      "있음": 3958,
      "청구": 3959,
      "칩모듈": 3960,
      "캐스팅": 3961,
      "탈퇴": 3962,
      "표현": 3963,
      "피보": 3964,
      "함으로써": 3965,
      "##시킨": 3966,
      "##53": 3967,
      "##AV": 3968,
      "##되거나": 3969,
      "##도에": 3970,
      "##trea": 3971,
      "##our": 3972,
      "##장소에": 3973,
      "##res": 3974,
      "##라이언트": 3975,
      "##율이": 3976,
      "##클라이언트": 3977,
      "##네트워크": 3978,
      "##hort": 3979,
      "##코드": 3980,
      "##텍스트": 3981,
      "수신중인": 3982,
      "방송의": 3983,
      "제공하여": 3984,
      "통신부를": 3985,
      "무선으로": 3986,
      "무선접속": 3987,
      "장치들": 3988,
      "요청은": 3989,
      "제어하기": 3990,
      "기지국들의": 3991,
      "송신물": 3992,
      "차량용": 3993,
      "과정으로": 3994,
      "패킷에": 3995,
      "선택신호": 3996,
      "##cene": 3997,
      "구성된다": 3998,
      "101": 3999,
      "##되어야": 4000,
      "202": 4001,
      "입력부를": 4002,
      "122": 4003,
      "획득한": 4004,
      "개시하는": 4005,
      "구비하고": 4006,
      "프레임에서": 4007,
      "##번호를": 4008,
      "140": 4009,
      "시점일": 4010,
      "시점인지": 4011,
      "타겟팅": 4012,
      "스마트폰과": 4013,
      "002": 4014,
      "객체에": 4015,
      "우선순위를": 4016,
      "스테이션에": 4017,
      "흐름의": 4018,
      "링크된": 4019,
      "DCD클라이언트": 4020,
      "TMU": 4021,
      "학습자": 4022,
      "이상인": 4023,
      "효과를": 4024,
      "공공장소에": 4025,
      "영상표시장치": 4026,
      "수정하여": 4027,
      "ACK": 4028,
      "PSI": 4029,
      "정밀맵": 4030,
      "8비트에": 4031,
      "윈도우": 4032,
      "엔터티": 4033,
      "불특정": 4034,
      "피보호": 4035,
      "##tream": 4036,
      "##ource": 4037,
      "39": 4038,
      "DS": 4039,
      "LTE": 4040,
      "access": 4041,
      "nf": 4042,
      "trans": 4043,
      "가지": 4044,
      "것인": 4045,
      "관점": 4046,
      "네이": 4047,
      "메세": 4048,
      "변화": 4049,
      "비가": 4050,
      "셋톱": 4051,
      "소요": 4052,
      "스위": 4053,
      "여부": 4054,
      "위험": 4055,
      "이는": 4056,
      "인디": 4057,
      "제5": 4058,
      "중의": 4059,
      "특성을": 4060,
      "##지만": 4061,
      "##52": 4062,
      "##58": 4063,
      "##54": 4064,
      "##55": 4065,
      "##도메인": 4066,
      "##ang": 4067,
      "##ehic": 4068,
      "##int": 4069,
      "##ication": 4070,
      "##nform": 4071,
      "##ved": 4072,
      "##임을": 4073,
      "##라인": 4074,
      "##c칩": 4075,
      "##설정된": 4076,
      "##메모리": 4077,
      "##반하는": 4078,
      "##저장": 4079,
      "##열을": 4080,
      "##알러": 4081,
      "방송용": 4082,
      "##으로의": 4083,
      "메시지로부터": 4084,
      "데이터그램": 4085,
      "사용할": 4086,
      "무선송신": 4087,
      "시스템들": 4088,
      "콘텐츠가": 4089,
      "채널들을": 4090,
      "기지국에서": 4091,
      "저장한": 4092,
      "재생이": 4093,
      "지역도메인": 4094,
      "각각은": 4095,
      "##시키도록": 4096,
      "203": 4097,
      "동작하는": 4098,
      "송출되는": 4099,
      "애플리케이션을": 4100,
      "결과에": 4101,
      "핸드오버가": 4102,
      "타입의": 4103,
      "있으면": 4104,
      "검출하는": 4105,
      "다이알러": 4106,
      "참여한": 4107,
      "##own": 4108,
      "##entation": 4109,
      "회로를": 4110,
      "모니터링하는": 4111,
      "효과가": 4112,
      "오프셋": 4113,
      "사물을": 4114,
      "아이템의": 4115,
      "레이어": 4116,
      "재난방송정보를": 4117,
      "##ink": 4118,
      "부모단말기": 4119,
      "상대방": 4120,
      "일실시예에": 4121,
      "##annel": 4122,
      "용이하게": 4123,
      "##resentation": 4124,
      "##treaming": 4125,
      "nfc칩": 4126,
      "스위칭": 4127,
      "##ange": 4128,
      "##nformation": 4129,
      "CO": 4130,
      "RT": 4131,
      "Res": 4132,
      "감염": 4133,
      "그러": 4134,
      "논리": 4135,
      "대항": 4136,
      "메쉬": 4137,
      "본체": 4138,
      "사실": 4139,
      "선정": 4140,
      "속도를": 4141,
      "순차": 4142,
      "예측": 4143,
      "운영": 4144,
      "이에": 4145,
      "최단": 4146,
      "포워": 4147,
      "##이저": 4148,
      "##84": 4149,
      "##51": 4150,
      "##56": 4151,
      "##57": 4152,
      "##와의": 4153,
      "##ab": 4154,
      "##기반": 4155,
      "##pp": 4156,
      "##모드": 4157,
      "##케어": 4158,
      "##감지": 4159,
      "정보들을": 4160,
      "전송함으로써": 4161,
      "통신처리": 4162,
      "이동하는": 4163,
      "단말기에게": 4164,
      "사용자를": 4165,
      "신호로": 4166,
      "패킷들을": 4167,
      "접속이": 4168,
      "저장하며": 4169,
      "##영상을": 4170,
      "동영상에": 4171,
      "세션에서": 4172,
      "관리부를": 4173,
      "연결되는": 4174,
      "식별자와": 4175,
      "201": 4176,
      "204": 4177,
      "206": 4178,
      "매핑하여": 4179,
      "센터에": 4180,
      "리스트에": 4181,
      "##ety": 4182,
      "자원의": 4183,
      "설치되어": 4184,
      "인접차량의": 4185,
      "이동단말에": 4186,
      "프로세서에": 4187,
      "##제어부": 4188,
      "기록매체": 4189,
      "대역폭": 4190,
      "전력을": 4191,
      "상세한": 4192,
      "흐름을": 4193,
      "통합망": 4194,
      "장치와의": 4195,
      "분배되는": 4196,
      "최소한": 4197,
      "취득하여": 4198,
      "선별하는": 4199,
      "서브시스템": 4200,
      "순번요청": 4201,
      "##que": 4202,
      "##ary": 4203,
      "영상표시장치에": 4204,
      "##nection": 4205,
      "##영역에": 4206,
      "애드버타이징": 4207,
      "애드버타이저": 4208,
      "클립을": 4209,
      "##afety": 4210,
      "QoS": 4211,
      "종래기술의": 4212,
      "##AVE": 4213,
      "COIS": 4214,
      "대항전": 4215,
      "포워딩": 4216,
      "82": 4217,
      "802": 4218,
      "Ad": 4219,
      "CD": 4220,
      "FM": 4221,
      "Fi": 4222,
      "Lo": 4223,
      "con": 4224,
      "eMBMS": 4225,
      "of": 4226,
      "가중": 4227,
      "경유": 4228,
      "공지": 4229,
      "근접": 4230,
      "누름": 4231,
      "렌더": 4232,
      "마이크": 4233,
      "많은": 4234,
      "버전을": 4235,
      "비정": 4236,
      "비컨": 4237,
      "비신호": 4238,
      "소프트": 4239,
      "수가": 4240,
      "수정된": 4241,
      "순위": 4242,
      "쉽게": 4243,
      "알고리즘": 4244,
      "요지": 4245,
      "운전": 4246,
      "의장": 4247,
      "자세": 4248,
      "점대다": 4249,
      "제시": 4250,
      "제품": 4251,
      "존으로": 4252,
      "주기를": 4253,
      "중개": 4254,
      "취합": 4255,
      "카테": 4256,
      "##지원": 4257,
      "##이다": 4258,
      "##80": 4259,
      "##94": 4260,
      "##iz": 4261,
      "##ist": 4262,
      "##od": 4263,
      "##션을": 4264,
      "##세대": 4265,
      "##브이": 4266,
      "##받을": 4267,
      "##안된": 4268,
      "방송에": 4269,
      "정보나": 4270,
      "제공하도록": 4271,
      "제공하지": 4272,
      "제공하고자": 4273,
      "전송의": 4274,
      "전송될": 4275,
      "통신하도록": 4276,
      "통신모듈": 4277,
      "사용자는": 4278,
      "사용자정보를": 4279,
      "채널별": 4280,
      "신호와": 4281,
      "패킷들의": 4282,
      "선택을": 4283,
      "접속되는": 4284,
      "이동통신사": 4285,
      "것이며": 4286,
      "노드로": 4287,
      "노드로부터": 4288,
      "프로그램이": 4289,
      "##신호와": 4290,
      "클라이언트에게": 4291,
      "##시키고": 4292,
      "디스플레이부": 4293,
      "입력되는": 4294,
      "123": 4295,
      "개시는": 4296,
      "변환하여": 4297,
      "##서버로": 4298,
      "제어기로부터": 4299,
      "통지하는": 4300,
      "추가하는": 4301,
      "감지된": 4302,
      "변경하는": 4303,
      "베어러를": 4304,
      "어플리케이션을": 4305,
      "210": 4306,
      "선별하여": 4307,
      "이동통신망의": 4308,
      "사전에": 4309,
      "거리를": 4310,
      "##AST": 4311,
      "초기화": 4312,
      "핸드오프를": 4313,
      "감소시키는": 4314,
      "참조하여": 4315,
      "최적경로에": 4316,
      "단축키": 4317,
      "##ehicle": 4318,
      "감염병": 4319,
      "렌더링": 4320,
      "카테고리": 4321,
      "80": 4322,
      "BSM": 4323,
      "MM": 4324,
      "Ro": 4325,
      "RTP": 4326,
      "Safety": 4327,
      "Time": 4328,
      "ev": 4329,
      "각자의": 4330,
      "공정": 4331,
      "내비게이션": 4332,
      "단문": 4333,
      "대상의": 4334,
      "도중": 4335,
      "동영상의": 4336,
      "되도록": 4337,
      "된다": 4338,
      "들을": 4339,
      "머신": 4340,
      "메인": 4341,
      "벗어": 4342,
      "부하": 4343,
      "뿐만": 4344,
      "성능": 4345,
      "순서": 4346,
      "어댑": 4347,
      "유사": 4348,
      "유알": 4349,
      "인지": 4350,
      "존들에": 4351,
      "줄일": 4352,
      "초과의": 4353,
      "측위": 4354,
      "콜에": 4355,
      "터널": 4356,
      "패널": 4357,
      "필수": 4358,
      "호를": 4359,
      "회선": 4360,
      "##이며": 4361,
      "##81": 4362,
      "##82": 4363,
      "##83": 4364,
      "##HC": 4365,
      "##호화된": 4366,
      "##ber": 4367,
      "##lication": 4368,
      "##기능": 4369,
      "##oIP": 4370,
      "##BMS": 4371,
      "##por": 4372,
      "##port": 4373,
      "##작용": 4374,
      "##번째": 4375,
      "##재해재난": 4376,
      "서비스들": 4377,
      "정보제공": 4378,
      "방법과": 4379,
      "무선기기": 4380,
      "네트워크별로": 4381,
      "네트워크로의": 4382,
      "이용자가": 4383,
      "이용가능한": 4384,
      "제어하고": 4385,
      "디바이스들로": 4386,
      "접속되어": 4387,
      "저장되는": 4388,
      "저장수단": 4389,
      "이동통신에서의": 4390,
      "결정할": 4391,
      "구성정보": 4392,
      "영상과": 4393,
      "설정하여": 4394,
      "전달할": 4395,
      "전달하여": 4396,
      "처리와": 4397,
      "수행되는": 4398,
      "휴대단말": 4399,
      "스마트기기": 4400,
      "브로드캐스팅된": 4401,
      "해결하고자": 4402,
      "디스크립": 4403,
      "시청을": 4404,
      "116": 4405,
      "경보를": 4406,
      "UE가": 4407,
      "##번호에": 4408,
      "촬영한": 4409,
      "150": 4410,
      "160": 4411,
      "##가능하게": 4412,
      "소스노드": 4413,
      "인식하고": 4414,
      "기기로": 4415,
      "기록된": 4416,
      "비콘의": 4417,
      "대역에": 4418,
      "도로의": 4419,
      "범위를": 4420,
      "일부분": 4421,
      "헤더에": 4422,
      "이동통신단말기로부터": 4423,
      "##empor": 4424,
      "플랫폼에서": 4425,
      "지진감지": 4426,
      "교환기를": 4427,
      "확립하는": 4428,
      "제3단계": 4429,
      "탑재된": 4430,
      "포맷으로": 4431,
      "엔티티에": 4432,
      "방지할": 4433,
      "출석관리": 4434,
      "##fier": 4435,
      "Real": 4436,
      "상호작용": 4437,
      "개설된": 4438,
      "지속기": 4439,
      "발언권을": 4440,
      "Connection": 4441,
      "육성메시지를": 4442,
      "영화관": 4443,
      "칩모듈은": 4444,
      "관점에": 4445,
      "최단거리": 4446,
      "##pplication": 4447,
      "RoHC": 4448,
      "어댑터": 4449,
      "유알엘": 4450,
      "##emporary": 4451,
      "DN": 4452,
      "IEE": 4453,
      "TMS": 4454,
      "WT": 4455,
      "temporary": 4456,
      "개선": 4457,
      "기설정된": 4458,
      "내부의": 4459,
      "담당": 4460,
      "도시": 4461,
      "무료": 4462,
      "방위": 4463,
      "별로": 4464,
      "셀에서": 4465,
      "시에": 4466,
      "시가": 4467,
      "시시티": 4468,
      "에어": 4469,
      "원본": 4470,
      "유동": 4471,
      "조절": 4472,
      "창안된": 4473,
      "크기": 4474,
      "##88": 4475,
      "##85": 4476,
      "##89": 4477,
      "##86": 4478,
      "##87": 4479,
      "##버를": 4480,
      "##리를": 4481,
      "##부로부터": 4482,
      "##ap": 4483,
      "##ey": 4484,
      "##ele": 4485,
      "##ial": 4486,
      "##자원": 4487,
      "##화하는": 4488,
      "##라고": 4489,
      "##만을": 4490,
      "##사용": 4491,
      "##바이트": 4492,
      "##더라도": 4493,
      "##응답": 4494,
      "##측에": 4495,
      "##그레이": 4496,
      "수신부와": 4497,
      "방송통신": 4498,
      "정보인": 4499,
      "제공해": 4500,
      "전송과": 4501,
      "메시지와": 4502,
      "데이터로부터": 4503,
      "채널로": 4504,
      "선택에": 4505,
      "제2단계": 4506,
      "생성한": 4507,
      "결정한": 4508,
      "결정한다": 4509,
      "전달하고": 4510,
      "노드는": 4511,
      "계층으로부터": 4512,
      "판단부": 4513,
      "124": 4514,
      "##시스템에서": 4515,
      "표시를": 4516,
      "수단으로서": 4517,
      "기능이": 4518,
      "구비하며": 4519,
      "DMB채널": 4520,
      "촬영하는": 4521,
      "수신기에": 4522,
      "스트림들의": 4523,
      "제공받는": 4524,
      "타입을": 4525,
      "이동단말로": 4526,
      "세그먼트를": 4527,
      "##무선통신": 4528,
      "리소스를": 4529,
      "탐색하여": 4530,
      "통신망에": 4531,
      "인코딩하는": 4532,
      "취득하는": 4533,
      "지시하는": 4534,
      "SMSC": 4535,
      "서브세": 4536,
      "시그널링을": 4537,
      "##uration": 4538,
      "비상재해재난": 4539,
      "라우팅": 4540,
      "배포자": 4541,
      "협력자": 4542,
      "##시간을": 4543,
      "컨텐트를": 4544,
      "작동하는": 4545,
      "실무자": 4546,
      "##umber": 4547,
      "케어교정관리": 4548,
      "용량을": 4549,
      "사이트에": 4550,
      "##ownl": 4551,
      "##quest": 4552,
      "가중치": 4553,
      "취합하여": 4554,
      "DNA": 4555,
      "IEEE": 4556,
      "시가잭": 4557,
      "시시티브이": 4558,
      "84": 4559,
      "94": 4560,
      "Description": 4561,
      "Dynamic": 4562,
      "Io": 4563,
      "NS": 4564,
      "P2": 4565,
      "SFN": 4566,
      "cont": 4567,
      "time": 4568,
      "가속": 4569,
      "개수의": 4570,
      "과금": 4571,
      "관할": 4572,
      "극대": 4573,
      "기동": 4574,
      "기재": 4575,
      "대용": 4576,
      "등에": 4577,
      "디맨": 4578,
      "만료": 4579,
      "맞게": 4580,
      "밀집": 4581,
      "받을": 4582,
      "부합": 4583,
      "비율이": 4584,
      "삭제": 4585,
      "상영": 4586,
      "속해": 4587,
      "스크": 4588,
      "알려": 4589,
      "연계": 4590,
      "오브": 4591,
      "원활": 4592,
      "이로": 4593,
      "이해": 4594,
      "이점이": 4595,
      "일치": 4596,
      "일회": 4597,
      "일부를": 4598,
      "장착": 4599,
      "접수": 4600,
      "줄이": 4601,
      "질의": 4602,
      "청각": 4603,
      "초대": 4604,
      "축적": 4605,
      "출발": 4606,
      "코딩": 4607,
      "페어": 4608,
      "표출": 4609,
      "필터": 4610,
      "한정": 4611,
      "행하는": 4612,
      "현상": 4613,
      "화재": 4614,
      "확장": 4615,
      "회신": 4616,
      "##로킹": 4617,
      "##로딩": 4618,
      "##근거리": 4619,
      "##13": 4620,
      "##36": 4621,
      "##90": 4622,
      "##91": 4623,
      "##93": 4624,
      "##70": 4625,
      "##71": 4626,
      "##72": 4627,
      "##73": 4628,
      "##74": 4629,
      "##77": 4630,
      "##송수신": 4631,
      "##ler": 4632,
      "##기기를": 4633,
      "##tor": 4634,
      "##oad": 4635,
      "##RS": 4636,
      "##ype": 4637,
      "##케이터": 4638,
      "##fic": 4639,
      "##TI": 4640,
      "##재해": 4641,
      "##컨텐츠": 4642,
      "##측정": 4643,
      "##≥1": 4644,
      "수신시": 4645,
      "방송신호": 4646,
      "방송중계": 4647,
      "포함될": 4648,
      "제공되고": 4649,
      "제공하되": 4650,
      "전송부를": 4651,
      "단계의": 4652,
      "통신장치의": 4653,
      "데이터는": 4654,
      "무선기지국": 4655,
      "이동방송": 4656,
      "채널정보를": 4657,
      "이용자의": 4658,
      "송신하여": 4659,
      "제1의": 4660,
      "제1단계": 4661,
      "위치가": 4662,
      "위치하고": 4663,
      "위치되어": 4664,
      "패킷이": 4665,
      "패킷으로": 4666,
      "선택될": 4667,
      "저장부": 4668,
      "구성정보를": 4669,
      "구성되어": 4670,
      "영상신호와": 4671,
      "설정을": 4672,
      "##장치는": 4673,
      "동영상으로": 4674,
      "전달되는": 4675,
      "실시예들에": 4676,
      "긴급정보를": 4677,
      "관리하기": 4678,
      "확인된": 4679,
      "광고주": 4680,
      "##으로부터의": 4681,
      "출력되도록": 4682,
      "입력에": 4683,
      "동작할": 4684,
      "매핑된": 4685,
      "판단하여": 4686,
      "판단되면": 4687,
      "가입자들과": 4688,
      "구간별": 4689,
      "시청할": 4690,
      "회의가": 4691,
      "파일에": 4692,
      "경보국": 4693,
      "요구하는": 4694,
      "중계기": 4695,
      "통화수신": 4696,
      "다운로드하는": 4697,
      "자원에": 4698,
      "제공받고": 4699,
      "핸드오버를": 4700,
      "포인트들의": 4701,
      "외부로": 4702,
      "AP로부터": 4703,
      "##모듈과": 4704,
      "이동단말이": 4705,
      "CBC": 4706,
      "감지하고": 4707,
      "대기자의": 4708,
      "문자메시지": 4709,
      "수신자들로": 4710,
      "안전메시지를": 4711,
      "조회코드": 4712,
      "트랜시": 4713,
      "##되었음을": 4714,
      "코드값이": 4715,
      "물리적": 4716,
      "타임을": 4717,
      "푸쉬형": 4718,
      "구축을": 4719,
      "보호자의": 4720,
      "##fig": 4721,
      "프로비저닝을": 4722,
      "신청을": 4723,
      "메타데이터는": 4724,
      "향상된": 4725,
      "수신단이": 4726,
      "방송국으로부터": 4727,
      "SIP": 4728,
      "양태에서": 4729,
      "재탐색이": 4730,
      "임계값보다": 4731,
      "패키지들을": 4732,
      "낭비를": 4733,
      "Channel": 4734,
      "허용되는": 4735,
      "장애인": 4736,
      "패턴에": 4737,
      "LED": 4738,
      "재난안전통신망": 4739,
      "지진발생시": 4740,
      "Subsystem": 4741,
      "타겟팅된": 4742,
      "인디케이터": 4743,
      "nfc칩을": 4744,
      "CDMA": 4745,
      "회선을": 4746,
      "지진감지분석": 4747,
      "##그레이딩": 4748,
      "방송통신중계": 4749,
      "IoT": 4750,
      "P2P": 4751,
      "오브젝": 4752,
      "일치하는": 4753,
      "페어링": 4754,
      "인디케이터를": 4755,
      "ASN": 4756,
      "CMA": 4757,
      "Equipment": 4758,
      "IN": 4759,
      "Media": 4760,
      "UR": 4761,
      "VH": 4762,
      "WCD": 4763,
      "것은": 4764,
      "궤적": 4765,
      "내용": 4766,
      "도달": 4767,
      "되어": 4768,
      "마킹": 4769,
      "망에": 4770,
      "먼저": 4771,
      "물론": 4772,
      "보안": 4773,
      "블랙": 4774,
      "상관": 4775,
      "상업": 4776,
      "셀을": 4777,
      "외부에": 4778,
      "운행": 4779,
      "이것": 4780,
      "인바이트": 4781,
      "일대": 4782,
      "일면에": 4783,
      "재방송": 4784,
      "최초": 4785,
      "택배": 4786,
      "토너": 4787,
      "호가": 4788,
      "호출": 4789,
      "화면에": 4790,
      "ＭＢ": 4791,
      "##지어": 4792,
      "##33": 4793,
      "##34": 4794,
      "##37": 4795,
      "##98": 4796,
      "##95": 4797,
      "##99": 4798,
      "##96": 4799,
      "##97": 4800,
      "##60": 4801,
      "##78": 4802,
      "##79": 4803,
      "##76": 4804,
      "##Area": 4805,
      "##리티": 4806,
      "##LC": 4807,
      "##용코드를": 4808,
      "##ak": 4809,
      "##eer": 4810,
      "##io": 4811,
      "##nal": 4812,
      "##수를": 4813,
      "##다운": 4814,
      "##ue": 4815,
      "##ch": 4816,
      "##요한": 4817,
      "##Con": 4818,
      "##환경": 4819,
      "##he": 4820,
      "##패턴": 4821,
      "##맥스": 4822,
      "방송시": 4823,
      "방송이": 4824,
      "방송할": 4825,
      "방송하기": 4826,
      "정보로부터": 4827,
      "포함되어": 4828,
      "제공자가": 4829,
      "단계에서": 4830,
      "사용하기": 4831,
      "이동형": 4832,
      "사용자단말": 4833,
      "요청시": 4834,
      "이용할": 4835,
      "##tin": 4836,
      "하는데": 4837,
      "특징이": 4838,
      "##cal": 4839,
      "선택할": 4840,
      "제2의": 4841,
      "접속하는": 4842,
      "MBMS의": 4843,
      "구성되며": 4844,
      "설정하기": 4845,
      "영역에서": 4846,
      "관리하고": 4847,
      "##adio": 4848,
      "등록한": 4849,
      "등록하고": 4850,
      "재난재해": 4851,
      "상태의": 4852,
      "할당을": 4853,
      "계층으로": 4854,
      "클라이언트는": 4855,
      "출력하고": 4856,
      "테이블의": 4857,
      "주소에": 4858,
      "112": 4859,
      "114": 4860,
      "와이맥스": 4861,
      "단말로의": 4862,
      "요구에": 4863,
      "수신기의": 4864,
      "##rection": 4865,
      "경우에도": 4866,
      "V2V": 4867,
      "포인트를": 4868,
      "소스로부터": 4869,
      "AP를": 4870,
      "AP가": 4871,
      "검색하여": 4872,
      "검출된": 4873,
      "컴퓨터에": 4874,
      "프로세서는": 4875,
      "기기로부터": 4876,
      "탐색하는": 4877,
      "##vers": 4878,
      "##agement": 4879,
      "비교하는": 4880,
      "인코딩된": 4881,
      "##olved": 4882,
      "화면을": 4883,
      "제공자로부터": 4884,
      "업데이트된": 4885,
      "카메라를": 4886,
      "효과적으로": 4887,
      "포맷을": 4888,
      "형성하는": 4889,
      "분류된": 4890,
      "계산하는": 4891,
      "체형측정": 4892,
      "##ence": 4893,
      "조합을": 4894,
      "스피커로": 4895,
      "기법을": 4896,
      "MBSFNArea": 4897,
      "RK를": 4898,
      "녹음물": 4899,
      "##ignal": 4900,
      "반영하는": 4901,
      "교통상황을": 4902,
      "메뉴를": 4903,
      "방송망의": 4904,
      "NAK": 4905,
      "evolved": 4906,
      "디스크립션": 4907,
      "일회용코드를": 4908,
      "오브젝트": 4909,
      "CMAM": 4910,
      "VHF": 4911,
      "WCDMA": 4912,
      "블랙박스": 4913,
      "일대일": 4914,
      "토너먼트": 4915,
      "##Config": 4916,
      "##rectional": 4917,
      "MBSFNAreaConfig": 4918,
      "500": 4919,
      "60": 4920,
      "Gate": 4921,
      "HELL": 4922,
      "Information": 4923,
      "UDP": 4924,
      "Zone": 4925,
      "downl": 4926,
      "zone": 4927,
      "간격": 4928,
      "값이": 4929,
      "검증": 4930,
      "그의": 4931,
      "나누": 4932,
      "누락": 4933,
      "단거리": 4934,
      "대신": 4935,
      "대전을": 4936,
      "드리": 4937,
      "로케이션": 4938,
      "명세": 4939,
      "모두": 4940,
      "모델": 4941,
      "및방법": 4942,
      "버튼": 4943,
      "빠른": 4944,
      "세부": 4945,
      "섹터": 4946,
      "소비": 4947,
      "수리": 4948,
      "스토": 4949,
      "안에서": 4950,
      "에고": 4951,
      "원샷": 4952,
      "위임": 4953,
      "유비": 4954,
      "의사": 4955,
      "인해": 4956,
      "있었": 4957,
      "잠수": 4958,
      "장소": 4959,
      "재전송": 4960,
      "종류": 4961,
      "지인": 4962,
      "카피": 4963,
      "콜의": 4964,
      "키를": 4965,
      "파워": 4966,
      "하이브": 4967,
      "한편": 4968,
      "##지의": 4969,
      "##함의": 4970,
      "##시의": 4971,
      "##시킴": 4972,
      "##12": 4973,
      "##15": 4974,
      "##17": 4975,
      "##38": 4976,
      "##IN": 4977,
      "##터스": 4978,
      "##63": 4979,
      "##69": 4980,
      "##는지": 4981,
      "##서도": 4982,
      "##리드": 4983,
      "##리젠": 4984,
      "##다가": 4985,
      "##향링크": 4986,
      "##레이터": 4987,
      "##마킹": 4988,
      "##플로우": 4989,
      "##브로드": 4990,
      "##WAN": 4991,
      "##way": 4992,
      "##쿼터스": 4993,
      "수신기를": 4994,
      "수신부에": 4995,
      "수신함에": 4996,
      "방송출력": 4997,
      "단말장치에": 4998,
      "전송이": 4999,
      "전송방식": 5000,
      "콘텐츠는": 5001,
      "하나에": 5002,
      "위치마킹": 5003,
      "차량과": 5004,
      "프로세스": 5005,
      "디바이스들은": 5006,
      "선택하여": 5007,
      "선택한다": 5008,
      "생성하며": 5009,
      "결정부": 5010,
      "구성됨": 5011,
      "구성하여": 5012,
      "구성하기": 5013,
      "영상신호에": 5014,
      "설정한": 5015,
      "처리하여": 5016,
      "처리하고": 5017,
      "가입된": 5018,
      "시간이": 5019,
      "프로그램과": 5020,
      "연결하여": 5021,
      "상태에서": 5022,
      "광고화면": 5023,
      "클라이언트로": 5024,
      "클라이언트와": 5025,
      "브로드캐스팅할": 5026,
      "실행에": 5027,
      "출력부": 5028,
      "시작을": 5029,
      "송수신을": 5030,
      "가입자들의": 5031,
      "모듈에": 5032,
      "안내하는": 5033,
      "주소와": 5034,
      "##방법은": 5035,
      "모드에": 5036,
      "##lement": 5037,
      "UE에": 5038,
      "플로우들": 5039,
      "중계하는": 5040,
      "중계단말기": 5041,
      "시점의": 5042,
      "제어기의": 5043,
      "##방향을": 5044,
      "위성으로부터": 5045,
      "포인트에": 5046,
      "이동단말과의": 5047,
      "인식하여": 5048,
      "베어러들을": 5049,
      "기기에": 5050,
      "서버와의": 5051,
      "##eli": 5052,
      "대역의": 5053,
      "전력비": 5054,
      "무선단말과": 5055,
      "적응적": 5056,
      "문자열을": 5057,
      "스케줄에": 5058,
      "목록을": 5059,
      "이동통신단말기를": 5060,
      "분배를": 5061,
      "전화번호와": 5062,
      "##되지만": 5063,
      "최적의": 5064,
      "타이밍": 5065,
      "유지하는": 5066,
      "이미지의": 5067,
      "커뮤니티에": 5068,
      "타이머가": 5069,
      "중앙관제서버": 5070,
      "슬롯에": 5071,
      "속도로": 5072,
      "반송되는": 5073,
      "선호도": 5074,
      "저장매체에": 5075,
      "포트번호": 5076,
      "음성신호로": 5077,
      "unit": 5078,
      "정확하게": 5079,
      "참여자들의": 5080,
      "휴대단말기의": 5081,
      "국지적": 5082,
      "네이티브": 5083,
      "메세지": 5084,
      "소요되는": 5085,
      "카테고리에": 5086,
      "지속기간": 5087,
      "대용량": 5088,
      "출발지": 5089,
      "HELLO": 5090,
      "드리프트": 5091,
      "명세서": 5092,
      "원샷케어": 5093,
      "유비쿼터스": 5094,
      "잠수함의": 5095,
      "하이브리드": 5096,
      "##리젠테이션": 5097,
      "55": 5098,
      "62": 5099,
      "Peer": 5100,
      "RLC": 5101,
      "Radio": 5102,
      "Trans": 5103,
      "communication": 5104,
      "streaming": 5105,
      "각기": 5106,
      "간섭": 5107,
      "게스트": 5108,
      "그를": 5109,
      "다시": 5110,
      "단위로": 5111,
      "로직": 5112,
      "매우": 5113,
      "방문": 5114,
      "보내": 5115,
      "부호화": 5116,
      "비해": 5117,
      "셋탑": 5118,
      "않을": 5119,
      "어나": 5120,
      "오류": 5121,
      "운반하는": 5122,
      "의존": 5123,
      "인형": 5124,
      "제작": 5125,
      "존의": 5126,
      "중간": 5127,
      "지도": 5128,
      "차세대": 5129,
      "추정": 5130,
      "프롬": 5131,
      "회피": 5132,
      "##18": 5133,
      "##14": 5134,
      "##19": 5135,
      "##16": 5136,
      "##31": 5137,
      "##32": 5138,
      "##35": 5139,
      "##39": 5140,
      "##스먼트": 5141,
      "##대한": 5142,
      "##61": 5143,
      "##62": 5144,
      "##68": 5145,
      "##64": 5146,
      "##65": 5147,
      "##66": 5148,
      "##67": 5149,
      "##리적인": 5150,
      "##부분": 5151,
      "##전원": 5152,
      "##보유": 5153,
      "##되기": 5154,
      "##ati": 5155,
      "##기는": 5156,
      "##ter": 5157,
      "##레이션": 5158,
      "##포트": 5159,
      "##내에": 5160,
      "##차선": 5161,
      "##운스먼트": 5162,
      "##주파수": 5163,
      "##ＭＳ": 5164,
      "방법의": 5165,
      "전송자": 5166,
      "전송받아": 5167,
      "통신의": 5168,
      "통신할": 5169,
      "통신에서": 5170,
      "무선국": 5171,
      "이용해": 5172,
      "송신기를": 5173,
      "디바이스에게": 5174,
      "있는지를": 5175,
      "선택하기": 5176,
      "선택되면": 5177,
      "있어서의": 5178,
      "저장부에": 5179,
      "이동통신기지국": 5180,
      "구성을": 5181,
      "##장치로": 5182,
      "가능하지": 5183,
      "수행하며": 5184,
      "수행하도록": 5185,
      "시간과": 5186,
      "응답해서": 5187,
      "식별자는": 5188,
      "식별자가": 5189,
      "계층의": 5190,
      "##MBS": 5191,
      "따르는": 5192,
      "발생하면": 5193,
      "입력받아": 5194,
      "경로에": 5195,
      "리스트로부터": 5196,
      "##directional": 5197,
      "142": 5198,
      "애플리케이션에": 5199,
      "스트림에": 5200,
      "공유할": 5201,
      "추가하여": 5202,
      "설명은": 5203,
      "장비의": 5204,
      "아이디로": 5205,
      "번호를": 5206,
      "기기가": 5207,
      "##제어부는": 5208,
      "사업장에": 5209,
      "적응적으로": 5210,
      "중단하는": 5211,
      "스테이션은": 5212,
      "범위의": 5213,
      "이동통신단말기는": 5214,
      "##채널을": 5215,
      "RSU": 5216,
      "조회코드를": 5217,
      "멀티캐스팅하는": 5218,
      "고려한": 5219,
      "선별된": 5220,
      "이동단말기를": 5221,
      "코드값을": 5222,
      "오프로딩": 5223,
      "Point": 5224,
      "적용될": 5225,
      "MCCH": 5226,
      "레이트를": 5227,
      "분류하는": 5228,
      "262": 5229,
      "통신시스템에서": 5230,
      "부여된": 5231,
      "보유하고": 5232,
      "권한을": 5233,
      "구체적으로는": 5234,
      "미팅에": 5235,
      "DB로부터": 5236,
      "DRX": 5237,
      "EMM을": 5238,
      "보장하는": 5239,
      "데이터그램을": 5240,
      "통신처리장치가": 5241,
      "누름패턴": 5242,
      "소프트웨어": 5243,
      "##ize": 5244,
      "content": 5245,
      "극대화": 5246,
      "디맨드": 5247,
      "이해를": 5248,
      "##ake": 5249,
      "어나운스먼트": 5250,
      "1개의": 5251,
      "54": 5252,
      "64": 5253,
      "74": 5254,
      "CAN": 5255,
      "FBMS": 5256,
      "Public": 5257,
      "SL": 5258,
      "SSM": 5259,
      "TI": 5260,
      "UC": 5261,
      "VS": 5262,
      "air": 5263,
      "co": 5264,
      "control": 5265,
      "j0": 5266,
      "mode": 5267,
      "res": 5268,
      "scene": 5269,
      "가로": 5270,
      "간편": 5271,
      "개념": 5272,
      "것과": 5273,
      "것인지": 5274,
      "격자": 5275,
      "계획": 5276,
      "교신": 5277,
      "귀가": 5278,
      "다수": 5279,
      "단점": 5280,
      "단방향": 5281,
      "동기를": 5282,
      "둘러": 5283,
      "리더": 5284,
      "리포트": 5285,
      "맞는": 5286,
      "반경": 5287,
      "방안": 5288,
      "분야": 5289,
      "손쉽": 5290,
      "수에": 5291,
      "아닌": 5292,
      "앉은": 5293,
      "어떻": 5294,
      "에코": 5295,
      "온라인": 5296,
      "완전": 5297,
      "워크": 5298,
      "위에": 5299,
      "이의": 5300,
      "이격": 5301,
      "일괄": 5302,
      "일측에": 5303,
      "있음을": 5304,
      "장점이": 5305,
      "재발생": 5306,
      "정지": 5307,
      "정체": 5308,
      "주파": 5309,
      "지능": 5310,
      "초광": 5311,
      "촬상": 5312,
      "최장": 5313,
      "최종": 5314,
      "컨트롤러": 5315,
      "쿼리": 5316,
      "터치": 5317,
      "통계": 5318,
      "파티": 5319,
      "플래": 5320,
      "필드를": 5321,
      "하드": 5322,
      "합성을": 5323,
      "형식": 5324,
      "활동": 5325,
      "희망": 5326,
      "##지리적인": 5327,
      "##관련": 5328,
      "##부가": 5329,
      "##티드": 5330,
      "##할지를": 5331,
      "##oin": 5332,
      "##동안": 5333,
      "##RU": 5334,
      "##ra": 5335,
      "##GSN": 5336,
      "##별한": 5337,
      "##사항": 5338,
      "##km": 5339,
      "##교환": 5340,
      "방송데이터": 5341,
      "방송장치에": 5342,
      "방송되어야": 5343,
      "방송컨텐츠": 5344,
      "방송관련": 5345,
      "단말과의": 5346,
      "전송받은": 5347,
      "통신방송": 5348,
      "사용한": 5349,
      "무선마": 5350,
      "무선네트워크": 5351,
      "이동장치에": 5352,
      "단말기별": 5353,
      "하나와": 5354,
      "요청될": 5355,
      "요청하거나": 5356,
      "채널과": 5357,
      "제어하며": 5358,
      "제어기를": 5359,
      "제어부와": 5360,
      "기지국과의": 5361,
      "제1근거리": 5362,
      "위치서버로부터": 5363,
      "차량에서": 5364,
      "차량안전": 5365,
      "디바이스들에게": 5366,
      "##cator": 5367,
      "선택신호에": 5368,
      "저장부와": 5369,
      "생성부": 5370,
      "생성하기": 5371,
      "##cei": 5372,
      "##장치와": 5373,
      "처리하기": 5374,
      "실시예들은": 5375,
      "##erver": 5376,
      "시간값": 5377,
      "재생장치": 5378,
      "재생되도록": 5379,
      "지역기반": 5380,
      "관리서버": 5381,
      "관련지어": 5382,
      "각각으로부터": 5383,
      "식별자의": 5384,
      "스마트기기를": 5385,
      "단말이라는": 5386,
      "광고는": 5387,
      "Services": 5388,
      "브로드캐스팅을": 5389,
      "실행을": 5390,
      "현재의": 5391,
      "##시키면": 5392,
      "##ngth": 5393,
      "표시자": 5394,
      "음성을": 5395,
      "음성신호를": 5396,
      "인증된": 5397,
      "인터넷으로": 5398,
      "파일들": 5399,
      "모드의": 5400,
      "변환부": 5401,
      "주변의": 5402,
      "프레임과": 5403,
      "이동국으로부터": 5404,
      "UE에서": 5405,
      "144": 5406,
      "134": 5407,
      "인터페이스들": 5408,
      "발신지": 5409,
      "발신하고": 5410,
      "154": 5411,
      "스트림으로": 5412,
      "스트림들을": 5413,
      "164": 5414,
      "세트들을": 5415,
      "180": 5416,
      "184": 5417,
      "172": 5418,
      "174": 5419,
      "개별적으로": 5420,
      "194": 5421,
      "통지를": 5422,
      "통지하기": 5423,
      "수집한": 5424,
      "추가로": 5425,
      "스마트폰의": 5426,
      "데이터베이스를": 5427,
      "AP에서": 5428,
      "연동을": 5429,
      "장비에": 5430,
      "복수개": 5431,
      "인접차량": 5432,
      "CBMS": 5433,
      "변경을": 5434,
      "번호로": 5435,
      "전환하여": 5436,
      "스케쥴": 5437,
      "이루어질": 5438,
      "사업장의": 5439,
      "게이트웨이로": 5440,
      "대기화면": 5441,
      "##verti": 5442,
      "참여할": 5443,
      "##ession": 5444,
      "중단된": 5445,
      "스테이션의": 5446,
      "구현하는": 5447,
      "구현되는": 5448,
      "타깃으로": 5449,
      "기준차량의": 5450,
      "주행지원": 5451,
      "로부터의": 5452,
      "회로에": 5453,
      "기존에": 5454,
      "안전메시지": 5455,
      "구동을": 5456,
      "형태에": 5457,
      "##ite": 5458,
      "유형을": 5459,
      "지시를": 5460,
      "카메라부": 5461,
      "SC에게": 5462,
      "이동단말기로": 5463,
      "RSSI": 5464,
      "콘텐트들을": 5465,
      "영상표시장치의": 5466,
      "방향각": 5467,
      "아이템을": 5468,
      "레이트로": 5469,
      "슬롯을": 5470,
      "변조된": 5471,
      "부착되어": 5472,
      "필드는": 5473,
      "##위치를": 5474,
      "매칭되어": 5475,
      "프로필을": 5476,
      "만족하는": 5477,
      "수정주기": 5478,
      "ACR": 5479,
      "Management": 5480,
      "손실된": 5481,
      "##thing": 5482,
      "콘트롤러에": 5483,
      "파악하고": 5484,
      "재포맷된": 5485,
      "반복주기": 5486,
      "클립이": 5487,
      "자녀단말기": 5488,
      "터미널은": 5489,
      "권한에": 5490,
      "기회가": 5491,
      "충돌을": 5492,
      "LEAVE": 5493,
      "베이스에": 5494,
      "스펙트럼을": 5495,
      "수신요청의": 5496,
      "합성시의": 5497,
      "무선인터페이스부": 5498,
      "##시킨다": 5499,
      "엔터티로부터": 5500,
      "LTE망": 5501,
      "##메모리영역에": 5502,
      "사실을": 5503,
      "순차적으로": 5504,
      "경유하여": 5505,
      "일부분을": 5506,
      "WTRU": 5507,
      "SMSC에": 5508,
      "가속도": 5509,
      "밀집도": 5510,
      "광고주의": 5511,
      "URL": 5512,
      "ＭＢＭＳ": 5513,
      "일대일로": 5514,
      "MBSFNAreaConfiguration": 5515,
      "스토리지": 5516,
      "##elivery": 5517,
      "하이브리드형": 5518,
      "UCC": 5519,
      "VSB": 5520,
      "손쉽게": 5521,
      "어떻게": 5522,
      "워크플로우": 5523,
      "이격되도록": 5524,
      "주파수의": 5525,
      "초광대역": 5526,
      "플래그": 5527,
      "하드웨어": 5528,
      "희망하는": 5529,
      "대기화면으로": 5530,
      "52": 5531,
      "72": 5532,
      "AD": 5533,
      "Application": 5534,
      "DL": 5535,
      "DO": 5536,
      "En": 5537,
      "EV": 5538,
      "St": 5539,
      "Short": 5540,
      "UI": 5541,
      "des": 5542,
      "int": 5543,
      "media": 5544,
      "public": 5545,
      "range": 5546,
      "system": 5547,
      "short": 5548,
      "가공": 5549,
      "개수": 5550,
      "그들의": 5551,
      "그러한": 5552,
      "글로": 5553,
      "내에서의": 5554,
      "네트워": 5555,
      "다단": 5556,
      "대전": 5557,
      "독립": 5558,
      "동시": 5559,
      "등과": 5560,
      "때마다": 5561,
      "메신": 5562,
      "메커": 5563,
      "무작": 5564,
      "바로": 5565,
      "반응": 5566,
      "복잡": 5567,
      "비용을": 5568,
      "센싱": 5569,
      "소거": 5570,
      "소모": 5571,
      "의거": 5572,
      "이때": 5573,
      "인에": 5574,
      "잡음": 5575,
      "재다운": 5576,
      "저렴": 5577,
      "전기": 5578,
      "절감": 5579,
      "지나": 5580,
      "집적": 5581,
      "창작": 5582,
      "청취": 5583,
      "초과": 5584,
      "펨토": 5585,
      "편리": 5586,
      "##이동": 5587,
      "##이크로": 5588,
      "##트릭": 5589,
      "##정의": 5590,
      "##와는": 5591,
      "##됨에": 5592,
      "##are": 5593,
      "##gment": 5594,
      "##상에서의": 5595,
      "##수행": 5596,
      "##다면": 5597,
      "##물의": 5598,
      "##un": 5599,
      "##xi": 5600,
      "##xt": 5601,
      "##va": 5602,
      "##니즘": 5603,
      "##미보유": 5604,
      "##만큼": 5605,
      "##PM": 5606,
      "##받고": 5607,
      "##받기": 5608,
      "##구조": 5609,
      "##해주는": 5610,
      "##없는": 5611,
      "##분배": 5612,
      "##범위": 5613,
      "방송되는": 5614,
      "방송시스템": 5615,
      "방송하고자": 5616,
      "제공이": 5617,
      "통신부와": 5618,
      "사용도를": 5619,
      "무선수신": 5620,
      "무선자원": 5621,
      "이동성을": 5622,
      "단말기들에": 5623,
      "하나가": 5624,
      "채널에서": 5625,
      "제어할": 5626,
      "제어방법을": 5627,
      "제1미보유": 5628,
      "##erg": 5629,
      "모바일을": 5630,
      "생성되는": 5631,
      "것이고": 5632,
      "설정에": 5633,
      "처리부를": 5634,
      "가능하도록": 5635,
      "가능성이": 5636,
      "응답을": 5637,
      "재생할": 5638,
      "노드들": 5639,
      "연결하는": 5640,
      "브로드캐스팅될": 5641,
      "이벤트가": 5642,
      "발생을": 5643,
      "가입자를": 5644,
      "표시자를": 5645,
      "경로가": 5646,
      "경로상": 5647,
      "수신하고자": 5648,
      "모듈은": 5649,
      "주소의": 5650,
      "인증하는": 5651,
      "##데이터와": 5652,
      "인터넷망": 5653,
      "주변환경": 5654,
      "목적지까지": 5655,
      "사이즈": 5656,
      "중계단말기를": 5657,
      "132": 5658,
      "제어기에서": 5659,
      "152": 5660,
      "162": 5661,
      "세트에": 5662,
      "세트는": 5663,
      "182": 5664,
      "다중주파수": 5665,
      "192": 5666,
      "통지할": 5667,
      "공급되는": 5668,
      "연동된": 5669,
      "존재하지": 5670,
      "검출하고": 5671,
      "인식된": 5672,
      "세그먼트에": 5673,
      "전환을": 5674,
      "메모리로부터": 5675,
      "전력량": 5676,
      "환경을": 5677,
      "요소는": 5678,
      "적응된": 5679,
      "중단되면": 5680,
      "services": 5681,
      "범위에": 5682,
      "상응하여": 5683,
      "동기화된": 5684,
      "명령이": 5685,
      "CBS를": 5686,
      "DCD서버": 5687,
      "진행방향을": 5688,
      "플랫폼을": 5689,
      "이상이": 5690,
      "모니터링하여": 5691,
      "트랜지": 5692,
      "MPD에": 5693,
      "##되었는지": 5694,
      "오프로드": 5695,
      "콘텐트에": 5696,
      "콘텐트를": 5697,
      "조작을": 5698,
      "조작하는": 5699,
      "없이도": 5700,
      "현황을": 5701,
      "매체에": 5702,
      "스캔하는": 5703,
      "필드에": 5704,
      "향상시킬": 5705,
      "배치하여": 5706,
      "분할하는": 5707,
      "양태에": 5708,
      "집합을": 5709,
      "측정하고": 5710,
      "경보시스템의": 5711,
      "길이를": 5712,
      "신속하게": 5713,
      "##acket": 5714,
      "지연을": 5715,
      "##verything": 5716,
      "확보할": 5717,
      "버전의": 5718,
      "선택신호수신": 5719,
      "DCD클라이언트로": 5720,
      "피보호자의": 5721,
      "비가청": 5722,
      "다이알러를": 5723,
      "그러나": 5724,
      "##able": 5725,
      "비정상": 5726,
      "##기능이": 5727,
      "##사용자": 5728,
      "상업용": 5729,
      "##tination": 5730,
      "모델을": 5731,
      "버튼형": 5732,
      "일괄전송": 5733,
      "지역기반으로": 5734,
      "destination": 5735,
      "글로벌": 5736,
      "네트워킹": 5737,
      "다단중계": 5738,
      "메신저": 5739,
      "메커니즘": 5740,
      "무작위로": 5741,
      "인에이블": 5742,
      "재다운로드": 5743,
      "펨토셀": 5744,
      "1단": 5745,
      "3축": 5746,
      "CELL": 5747,
      "DAS": 5748,
      "GR": 5749,
      "Key": 5750,
      "LBS": 5751,
      "NO": 5752,
      "Number": 5753,
      "Scene": 5754,
      "VO": 5755,
      "Vehicle": 5756,
      "dis": 5757,
      "in": 5758,
      "mV": 5759,
      "rou": 5760,
      "se": 5761,
      "type": 5762,
      "간단": 5763,
      "감시": 5764,
      "감도가": 5765,
      "값과": 5766,
      "거친": 5767,
      "기인": 5768,
      "내부에": 5769,
      "넓은": 5770,
      "노말": 5771,
      "단순": 5772,
      "동적으로": 5773,
      "되면": 5774,
      "등에서": 5775,
      "때까지": 5776,
      "만약": 5777,
      "망에서의": 5778,
      "모빌": 5779,
      "물품": 5780,
      "배신": 5781,
      "배달": 5782,
      "보관": 5783,
      "보정": 5784,
      "사항": 5785,
      "산정": 5786,
      "소지": 5787,
      "속성을": 5788,
      "스위치": 5789,
      "시도": 5790,
      "암호화": 5791,
      "암호화된": 5792,
      "애니캐스트": 5793,
      "양상에": 5794,
      "얻는": 5795,
      "에게": 5796,
      "에이브": 5797,
      "예시": 5798,
      "움직": 5799,
      "음파": 5800,
      "있지": 5801,
      "정책": 5802,
      "정규": 5803,
      "제거": 5804,
      "조도": 5805,
      "조사": 5806,
      "지향": 5807,
      "차선": 5808,
      "체결": 5809,
      "최근": 5810,
      "출원": 5811,
      "측면": 5812,
      "측정된": 5813,
      "캐싱": 5814,
      "캡처": 5815,
      "특성": 5816,
      "판별": 5817,
      "평상": 5818,
      "하이": 5819,
      "하향링크": 5820,
      "해독": 5821,
      "혼합": 5822,
      "회원": 5823,
      "##지진": 5824,
      "##이엔": 5825,
      "##하려": 5826,
      "##하라는": 5827,
      "##enti": 5828,
      "##ext": 5829,
      "##iss": 5830,
      "##인증": 5831,
      "##기법": 5832,
      "##상적으로": 5833,
      "##다고": 5834,
      "##us": 5835,
      "##ual": 5836,
      "##Ra": 5837,
      "##miss": 5838,
      "##per": 5839,
      "##간격": 5840,
      "##접적으로": 5841,
      "##Fi": 5842,
      "##fer": 5843,
      "##형태": 5844,
      "##결정": 5845,
      "##출되는": 5846,
      "##해줌": 5847,
      "##음에": 5848,
      "##너지": 5849,
      "서비스하기": 5850,
      "방송사": 5851,
      "방송에서": 5852,
      "방송하게": 5853,
      "방송망을": 5854,
      "방송신호를": 5855,
      "단말들을": 5856,
      "단말간의": 5857,
      "제공된": 5858,
      "제공될": 5859,
      "제공장치에": 5860,
      "전송부": 5861,
      "전송자로부터": 5862,
      "메시지로": 5863,
      "데이터와": 5864,
      "사용해": 5865,
      "무선단말기": 5866,
      "이동할": 5867,
      "장치들에게": 5868,
      "단말기들": 5869,
      "단말기상에서의": 5870,
      "사용자정보": 5871,
      "사용자들에게": 5872,
      "멀티캐스트를": 5873,
      "##되는지": 5874,
      "요청자에게": 5875,
      "브로드캐스트하는": 5876,
      "브로드캐스트서비스": 5877,
      "이용자": 5878,
      "컨텐츠와": 5879,
      "송신이": 5880,
      "송신될": 5881,
      "제1서비스": 5882,
      "위치서버": 5883,
      "신호인": 5884,
      "접속하면": 5885,
      "MBMS가": 5886,
      "생성을": 5887,
      "동영상이": 5888,
      "108": 5889,
      "가능하면": 5890,
      "영역과": 5891,
      "수행되고": 5892,
      "지역별로": 5893,
      "노드간의": 5894,
      "관리하며": 5895,
      "관련됨": 5896,
      "확인하기": 5897,
      "연결시켜": 5898,
      "할당방법에": 5899,
      "실행시": 5900,
      "##시키다가": 5901,
      "발생했": 5902,
      "디스플레이에": 5903,
      "디스플레이를": 5904,
      "송수신부": 5905,
      "송출자가": 5906,
      "음성과": 5907,
      "인증되지": 5908,
      "태그를": 5909,
      "구비되어": 5910,
      "MAG": 5911,
      "프레임에": 5912,
      "UE들": 5913,
      "근거리무선통신": 5914,
      "사고가": 5915,
      "플로우가": 5916,
      "제어기에": 5917,
      "애플리케이션은": 5918,
      "수신기와": 5919,
      "수신기가": 5920,
      "다운로드받는": 5921,
      "공유를": 5922,
      "공유하는": 5923,
      "공유하기": 5924,
      "대화형": 5925,
      "170": 5926,
      "190": 5927,
      "스마트폰에": 5928,
      "사업자의": 5929,
      "이동단말은": 5930,
      "인식되는": 5931,
      "우선순위로": 5932,
      "번호와": 5933,
      "##niti": 5934,
      "센서의": 5935,
      "센서들의": 5936,
      "게이트웨이를": 5937,
      "게이트웨이가": 5938,
      "탐색을": 5939,
      "통신망과": 5940,
      "WiMA": 5941,
      "WiFi": 5942,
      "상세정보를": 5943,
      "구현하기": 5944,
      "스케줄러": 5945,
      "오버를": 5946,
      "비교에": 5947,
      "안전한": 5948,
      "카운터": 5949,
      "다이버시티가": 5950,
      "유닛에": 5951,
      "0011": 5952,
      "최적화하는": 5953,
      "블록을": 5954,
      "제어부의": 5955,
      "제어부는": 5956,
      "예약된": 5957,
      "지시자를": 5958,
      "이동통신망에서": 5959,
      "SC에": 5960,
      "접근할": 5961,
      "##되었을": 5962,
      "유저가": 5963,
      "##ntity": 5964,
      "방향성": 5965,
      "조작에": 5966,
      "커뮤니티를": 5967,
      "검사하고": 5968,
      "체크하고": 5969,
      "지국장치의": 5970,
      "UWB를": 5971,
      "단말들로부터": 5972,
      "매칭된": 5973,
      "신청자의": 5974,
      "514": 5975,
      "##sement": 5976,
      "Request": 5977,
      "레벨을": 5978,
      "손실한": 5979,
      "엘리먼트를": 5980,
      "유효성": 5981,
      "카운트되는": 5982,
      "시퀀스에": 5983,
      "VM을": 5984,
      "반송하는": 5985,
      "##ctr": 5986,
      "PLMN들에": 5987,
      "긴급정보의": 5988,
      "보고를": 5989,
      "Tx존으로": 5990,
      "육성메시지": 5991,
      "지진발생결과": 5992,
      "수신감도": 5993,
      "수신감도가": 5994,
      "##하다고": 5995,
      "이동통신단말이": 5996,
      "재난방송정보가": 5997,
      "기억부에": 5998,
      "복조하는": 5999,
      "대기순번이": 6000,
      "실현하는": 6001,
      "적절한": 6002,
      "커넥터": 6003,
      "MEC": 6004,
      "MEMS": 6005,
      "일련번호": 6006,
      "송신물을": 6007,
      "선택신호가": 6008,
      "DSC": 6009,
      "비가입": 6010,
      "위험상황": 6011,
      "오프셋을": 6012,
      "기록매체를": 6013,
      "통합망에서의": 6014,
      "순번요청을": 6015,
      "LoRa": 6016,
      "머신형": 6017,
      "부하를": 6018,
      "터널을": 6019,
      "서브세트": 6020,
      "NSP": 6021,
      "접수하면": 6022,
      "초대를": 6023,
      "통화수신자에": 6024,
      "조회코드에": 6025,
      "##그레이딩하는": 6026,
      "downlink": 6027,
      "종류에": 6028,
      "##시킴으로써": 6029,
      "포트번호의": 6030,
      "보내는": 6031,
      "스케쥴링": 6032,
      "ADV": 6033,
      "집적된": 6034,
      "DASH": 6035,
      "GRE": 6036,
      "NOC": 6037,
      "VOD": 6038,
      "mVoIP": 6039,
      "router": 6040,
      "모빌리티": 6041,
      "에이브이엔": 6042,
      "지향성": 6043,
      "평상시에": 6044,
      "##mission": 6045,
      "근거리무선통신부": 6046,
      "WiMAX": 6047,
      "2개의": 6048,
      "220": 6049,
      "420": 6050,
      "Bl": 6051,
      "BN": 6052,
      "BMS": 6053,
      "BTS": 6054,
      "CMS": 6055,
      "CID": 6056,
      "EC": 6057,
      "Identi": 6058,
      "No": 6059,
      "N번째": 6060,
      "OF": 6061,
      "PIN": 6062,
      "RR": 6063,
      "TS": 6064,
      "an": 6065,
      "equipment": 6066,
      "signal": 6067,
      "tele": 6068,
      "vehicle": 6069,
      "wide": 6070,
      "공고": 6071,
      "공간": 6072,
      "과부": 6073,
      "관하여": 6074,
      "구독": 6075,
      "규격": 6076,
      "규정하는": 6077,
      "극복": 6078,
      "낮은": 6079,
      "넘버를": 6080,
      "달리": 6081,
      "동의": 6082,
      "되고": 6083,
      "따로": 6084,
      "때에": 6085,
      "몸통": 6086,
      "문의": 6087,
      "믹싱": 6088,
      "바탕": 6089,
      "변화된": 6090,
      "본원": 6091,
      "부정": 6092,
      "불필": 6093,
      "빌딩": 6094,
      "수요": 6095,
      "스크립": 6096,
      "승낙": 6097,
      "신뢰": 6098,
      "안정": 6099,
      "어떤": 6100,
      "예정된": 6101,
      "원시": 6102,
      "의미": 6103,
      "이들": 6104,
      "일시": 6105,
      "일례": 6106,
      "있지만": 6107,
      "작업": 6108,
      "재설정": 6109,
      "적극": 6110,
      "존을": 6111,
      "주제어": 6112,
      "증강": 6113,
      "첨부": 6114,
      "컨텍스트": 6115,
      "템플": 6116,
      "토대로": 6117,
      "편의": 6118,
      "함을": 6119,
      "해시": 6120,
      "현장": 6121,
      "확진": 6122,
      "확산": 6123,
      "##함과": 6124,
      "##시설": 6125,
      "##송파": 6126,
      "##도로": 6127,
      "##ace": 6128,
      "##be": 6129,
      "##band": 6130,
      "##id": 6131,
      "##기로": 6132,
      "##량을": 6133,
      "##조건": 6134,
      "##du": 6135,
      "##op": 6136,
      "##장비": 6137,
      "##pon": 6138,
      "##라우": 6139,
      "##cy": 6140,
      "##내믹": 6141,
      "##콘텐츠": 6142,
      "##연결": 6143,
      "##반송파": 6144,
      "##운트": 6145,
      "##사이": 6146,
      "##주기를": 6147,
      "##확인": 6148,
      "##롭게": 6149,
      "##테인": 6150,
      "##퍼텍스트": 6151,
      "##분할": 6152,
      "##변환": 6153,
      "##견지에": 6154,
      "##카운트": 6155,
      "##률을": 6156,
      "##권을": 6157,
      "##밴드": 6158,
      "서비스하는": 6159,
      "서비스되는": 6160,
      "수신단말기": 6161,
      "방송장비": 6162,
      "포함함으로써": 6163,
      "제공단말": 6164,
      "제공되며": 6165,
      "전송에": 6166,
      "전송율을": 6167,
      "발명에서": 6168,
      "통신하고": 6169,
      "이동에": 6170,
      "장치에게": 6171,
      "단말기들로": 6172,
      "사용자정보에": 6173,
      "콘텐츠정보": 6174,
      "요청할": 6175,
      "채널들에": 6176,
      "채널별로": 6177,
      "브로드캐스트하기": 6178,
      "제어한다": 6179,
      "제어신호를": 6180,
      "컨텐츠는": 6181,
      "송신하며": 6182,
      "제1응답": 6183,
      "있다는": 6184,
      "##tive": 6185,
      "차량에게": 6186,
      "디바이스들을": 6187,
      "디바이스에서의": 6188,
      "디바이스들이": 6189,
      "디바이스로부터의": 6190,
      "있는데": 6191,
      "패킷화": 6192,
      "저장할": 6193,
      "해당되는": 6194,
      "생성되고": 6195,
      "그룹이": 6196,
      "구성원": 6197,
      "영상은": 6198,
      "영상들을": 6199,
      "설정되는": 6200,
      "##장치에서": 6201,
      "전달된": 6202,
      "처리결과": 6203,
      "영역이": 6204,
      "영역으로": 6205,
      "대응문자": 6206,
      "수행한": 6207,
      "재생되는": 6208,
      "재생과정": 6209,
      "긴급방송": 6210,
      "IP와": 6211,
      "관련이": 6212,
      "연결되고": 6213,
      "기초한": 6214,
      "할당되었음을": 6215,
      "##된다고": 6216,
      "실행하도록": 6217,
      "발생시": 6218,
      "발생된": 6219,
      "발생한": 6220,
      "입력하면": 6221,
      "지원되는": 6222,
      "근거로": 6223,
      "송출부를": 6224,
      "표시된": 6225,
      "안내를": 6226,
      "음성변환": 6227,
      "회의의": 6228,
      "획득하여": 6229,
      "스트리밍데이터를": 6230,
      "변환하고": 6231,
      "필요에": 6232,
      "촬영하여": 6233,
      "사이를": 6234,
      "요구하고": 6235,
      "인터페이스에": 6236,
      "1559": 6237,
      "공유될": 6238,
      "세트와": 6239,
      "다중화": 6240,
      "다중반송파": 6241,
      "통지가": 6242,
      "##들로의": 6243,
      "수집하여": 6244,
      "수집하고": 6245,
      "외부의": 6246,
      "데이터베이스로": 6247,
      "있으므로": 6248,
      "네비게이션부를": 6249,
      "##모듈을": 6250,
      "장비들": 6251,
      "존재할": 6252,
      "인접해": 6253,
      "이동단말과": 6254,
      "컴퓨터에서": 6255,
      "다이내믹": 6256,
      "BCCH": 6257,
      "BCAST": 6258,
      "우선순위에": 6259,
      "우선순위는": 6260,
      "##차량에서": 6261,
      "전자장치": 6262,
      "품질이": 6263,
      "부분은": 6264,
      "##단계를": 6265,
      "기록한": 6266,
      "메모리를": 6267,
      "코드는": 6268,
      "비콘신호": 6269,
      "통신망으로": 6270,
      "요소와": 6271,
      "스케줄을": 6272,
      "이동통신단말기와": 6273,
      "명령에": 6274,
      "MPT": 6275,
      "진행하는": 6276,
      "형태의": 6277,
      "존재하는지": 6278,
      "유닛을": 6279,
      "0010": 6280,
      "0012": 6281,
      "고려해서": 6282,
      "유지하면서": 6283,
      "확립된": 6284,
      "식별정보별로": 6285,
      "이동단말기의": 6286,
      "MPD를": 6287,
      "원격제어": 6288,
      "##수단과": 6289,
      "적용하여": 6290,
      "포맷에": 6291,
      "알림의": 6292,
      "판독하여": 6293,
      "방향을": 6294,
      "이후에": 6295,
      "않고도": 6296,
      "스캔하여": 6297,
      "##fication": 6298,
      "대체영상을": 6299,
      "갱신된": 6300,
      "기관의": 6301,
      "매칭하여": 6302,
      "프로필에": 6303,
      "핸드오프가": 6304,
      "Univers": 6305,
      "수신단으로": 6306,
      "##ency": 6307,
      "분할된": 6308,
      "증가시키는": 6309,
      "##인터넷": 6310,
      "엘리먼트로": 6311,
      "작동시키는": 6312,
      "디코딩한": 6313,
      "유효한": 6314,
      "시퀀스를": 6315,
      "지속적으로": 6316,
      "정확한": 6317,
      "버스트의": 6318,
      "##ision": 6319,
      "밴드에": 6320,
      "용도정의": 6321,
      "최대한": 6322,
      "수신요청카운트": 6323,
      "끊김없는": 6324,
      "오락방송신호": 6325,
      "identity": 6326,
      "identifier": 6327,
      "있음은": 6328,
      "가지고": 6329,
      "무선송신부를": 6330,
      "운전자에게": 6331,
      "제품이": 6332,
      "원본영상": 6333,
      "##aptive": 6334,
      "알려진": 6335,
      "연계된": 6336,
      "이로써": 6337,
      "회신하는": 6338,
      "장애인의": 6339,
      "보안등": 6340,
      "상관없이": 6341,
      "사용자단말의": 6342,
      "대신하여": 6343,
      "프로세스는": 6344,
      "가로등": 6345,
      "개념들의": 6346,
      "격자형": 6347,
      "지능형": 6348,
      "무선마이크": 6349,
      "DCD서버가": 6350,
      "기인한": 6351,
      "하이퍼텍스트": 6352,
      "비가입자": 6353,
      "BNG": 6354,
      "BMSC": 6355,
      "CMSP": 6356,
      "과부하": 6357,
      "스크립트를": 6358,
      "승낙한": 6359,
      "주제어권을": 6360,
      "첨부된": 6361,
      "템플릿": 6362,
      "Universal": 6363,
      "1≤": 6364,
      "2단": 6365,
      "2개": 6366,
      "4G": 6367,
      "502": 6368,
      "Au": 6369,
      "CA": 6370,
      "CR": 6371,
      "Gen": 6372,
      "LAN": 6373,
      "MMS": 6374,
      "M개의": 6375,
      "M≥1": 6376,
      "N≥1": 6377,
      "Over": 6378,
      "OPM": 6379,
      "Pse": 6380,
      "RAS": 6381,
      "SS": 6382,
      "Streaming": 6383,
      "VU": 6384,
      "VoIP": 6385,
      "WAVE": 6386,
      "aw": 6387,
      "cell": 6388,
      "cct": 6389,
      "center": 6390,
      "comm": 6391,
      "di": 6392,
      "delivery": 6393,
      "entity": 6394,
      "presentation": 6395,
      "st": 6396,
      "session": 6397,
      "wi": 6398,
      "가질": 6399,
      "경과": 6400,
      "경험": 6401,
      "공용": 6402,
      "공장": 6403,
      "기입": 6404,
      "노변": 6405,
      "단절": 6406,
      "단점이": 6407,
      "답문": 6408,
      "대중": 6409,
      "대피": 6410,
      "대안": 6411,
      "도면": 6412,
      "등주": 6413,
      "로드": 6414,
      "마이크로": 6415,
      "막대한": 6416,
      "못하는": 6417,
      "무음": 6418,
      "배열": 6419,
      "백홀": 6420,
      "버스": 6421,
      "벡터": 6422,
      "본방송": 6423,
      "부호화된": 6424,
      "블로킹": 6425,
      "비율을": 6426,
      "사회": 6427,
      "산출된": 6428,
      "산출하는": 6429,
      "선곡": 6430,
      "소자": 6431,
      "소매": 6432,
      "소리를": 6433,
      "수반하는": 6434,
      "시뮬": 6435,
      "안경": 6436,
      "않아": 6437,
      "양상": 6438,
      "양상에서": 6439,
      "어웨이": 6440,
      "언블": 6441,
      "에너지": 6442,
      "엔코딩": 6443,
      "여부와": 6444,
      "영향": 6445,
      "요건": 6446,
      "원근": 6447,
      "인포": 6448,
      "작을": 6449,
      "장소에": 6450,
      "점검": 6451,
      "제보": 6452,
      "제m": 6453,
      "제약": 6454,
      "조직": 6455,
      "조정하는": 6456,
      "좋은": 6457,
      "중지": 6458,
      "지점": 6459,
      "지정하는": 6460,
      "직간": 6461,
      "차별": 6462,
      "참석": 6463,
      "층에서": 6464,
      "클래": 6465,
      "특별한": 6466,
      "프리젠테이션": 6467,
      "피킹": 6468,
      "하거나": 6469,
      "한계": 6470,
      "핫스": 6471,
      "항목": 6472,
      "##에도": 6473,
      "##터리": 6474,
      "##원을": 6475,
      "##원하기": 6476,
      "##하에": 6477,
      "##전화": 6478,
      "##전달": 6479,
      "##비전": 6480,
      "##됨을": 6481,
      "##가를": 6482,
      "##ase": 6483,
      "##ble": 6484,
      "##less": 6485,
      "##ition": 6486,
      "##ise": 6487,
      "##ific": 6488,
      "##n≤": 6489,
      "##NE": 6490,
      "##do": 6491,
      "##dr": 6492,
      "##dle": 6493,
      "##자로": 6494,
      "##자세": 6495,
      "##자와의": 6496,
      "##oo": 6497,
      "##udo": 6498,
      "##raf": 6499,
      "##링된": 6500,
      "##cific": 6501,
      "##sum": 6502,
      "##내부": 6503,
      "##방에": 6504,
      "##DM": 6505,
      "##DC": 6506,
      "##강도가": 6507,
      "##구동": 6508,
      "##있는": 6509,
      "##두고": 6510,
      "##목록": 6511,
      "##센터": 6512,
      "##렉티브": 6513,
      "서비스부": 6514,
      "서비스부에서": 6515,
      "수신부를": 6516,
      "수신하지": 6517,
      "방송내": 6518,
      "방송소": 6519,
      "단말인지": 6520,
      "##스트림": 6521,
      "포함되며": 6522,
      "제공장치": 6523,
      "제공시스템": 6524,
      "전송된다": 6525,
      "전송서버": 6526,
      "통신한다": 6527,
      "통신에서의": 6528,
      "통신가능하게": 6529,
      "데이터로": 6530,
      "무선랜": 6531,
      "무선채널": 6532,
      "장치에서의": 6533,
      "장치로의": 6534,
      "장치제어부는": 6535,
      "단말기에서의": 6536,
      "단말기들에게": 6537,
      "사용자들은": 6538,
      "멀티캐스트서비스": 6539,
      "브로드캐": 6540,
      "##되는지에": 6541,
      "요청들을": 6542,
      "요청메시지": 6543,
      "요청조건": 6544,
      "채널화": 6545,
      "채널상태": 6546,
      "이용하도록": 6547,
      "이용가능": 6548,
      "제어장치가": 6549,
      "컨텐츠에서": 6550,
      "기지국들": 6551,
      "송신의": 6552,
      "송신되지": 6553,
      "제1단말기": 6554,
      "제1요청": 6555,
      "실시형태": 6556,
      "차량으로": 6557,
      "차량내부": 6558,
      "디바이스로의": 6559,
      "MBS와": 6560,
      "MBS만": 6561,
      "패킷은": 6562,
      "모바일과": 6563,
      "식별코드를": 6564,
      "접속시": 6565,
      "접속되며": 6566,
      "그룹은": 6567,
      "결정부와": 6568,
      "##영상교정": 6569,
      "##ong": 6570,
      "설정부": 6571,
      "전달받은": 6572,
      "105": 6573,
      "가능하다": 6574,
      "대응되어": 6575,
      "대응되며": 6576,
      "##erval": 6577,
      "가입하는": 6578,
      "달성하고": 6579,
      "지역단": 6580,
      "지역으로": 6581,
      "노드인": 6582,
      "노드들과": 6583,
      "노드인지": 6584,
      "관리부에": 6585,
      "관련한": 6586,
      "관련하여": 6587,
      "인터렉티브": 6588,
      "등록부": 6589,
      "등록정보": 6590,
      "식별자들을": 6591,
      "스마트제어부": 6592,
      "광고되지만": 6593,
      "할당한": 6594,
      "할당하고": 6595,
      "할당하기": 6596,
      "할당되는": 6597,
      "계층에": 6598,
      "클라이언트에": 6599,
      "실행할": 6600,
      "해결할": 6601,
      "기술은": 6602,
      "기술들이": 6603,
      "디지털화된": 6604,
      "디지털사이": 6605,
      "205": 6606,
      "1200": 6607,
      "가입자들에게": 6608,
      "송출자에": 6609,
      "##시스템의": 6610,
      "표시하기": 6611,
      "추출부에서": 6612,
      "테이블에서": 6613,
      "제공함을": 6614,
      "센터에서": 6615,
      "센터로부터의": 6616,
      "인증에": 6617,
      "인증부": 6618,
      "기능들을": 6619,
      "기능들에": 6620,
      "시청하는": 6621,
      "시청자에게": 6622,
      "회의에": 6623,
      "태그가": 6624,
      "인터넷에": 6625,
      "##방법의": 6626,
      "##aging": 6627,
      "개시의": 6628,
      "개시된": 6629,
      "개시되어": 6630,
      "변환부를": 6631,
      "프레임으로": 6632,
      "무선통신부": 6633,
      "무선통신용": 6634,
      "무선통신시스템에": 6635,
      "UE는": 6636,
      "##서버에서": 6637,
      "필요함을": 6638,
      "필요하다고": 6639,
      "##ding": 6640,
      "촬영되어": 6641,
      "촬영위치": 6642,
      "플로우로": 6643,
      "145": 6644,
      "요구하여": 6645,
      "전원이": 6646,
      "전원부": 6647,
      "발신하여": 6648,
      "애플리케이션이": 6649,
      "##방향차선": 6650,
      "수신기는": 6651,
      "세트들의": 6652,
      "텔레비전": 6653,
      "나타낸": 6654,
      "텔레매틱스의": 6655,
      "추가하지": 6656,
      "추가되거나": 6657,
      "설명된다": 6658,
      "AP와": 6659,
      "공급부를": 6660,
      "공급받는": 6661,
      "전체에": 6662,
      "연동되는": 6663,
      "존재를": 6664,
      "검출될": 6665,
      "이동단말을": 6666,
      "대상인": 6667,
      "대상자의": 6668,
      "자신을": 6669,
      "교통정보가": 6670,
      "객체를": 6671,
      "인식부": 6672,
      "감지하여": 6673,
      "프로세서에서": 6674,
      "세그먼트들을": 6675,
      "어플리케이션이": 6676,
      "트래픽에": 6677,
      "기기용": 6678,
      "이루어지": 6679,
      "사업장별": 6680,
      "통신망인": 6681,
      "무선단말에서": 6682,
      "스테이션이": 6683,
      "구현할": 6684,
      "흐름이": 6685,
      "랭킹하는": 6686,
      "랭킹들에": 6687,
      "분석을": 6688,
      "헤더부": 6689,
      "기준이": 6690,
      "효율성을": 6691,
      "이동통신단말기의": 6692,
      "이동통신단말기에": 6693,
      "분배하는": 6694,
      "행사에": 6695,
      "로밍이": 6696,
      "지진을": 6697,
      "이미지를": 6698,
      "보상을": 6699,
      "학습서비스": 6700,
      "212": 6701,
      "유닛은": 6702,
      "유닛들을": 6703,
      "호스트는": 6704,
      "취득하며": 6705,
      "받아서": 6706,
      "압축하지": 6707,
      "음원은": 6708,
      "멀티캐스팅되는": 6709,
      "다음의": 6710,
      "##관리부": 6711,
      "유지할지를": 6712,
      "위치정보에": 6713,
      "식별정보에": 6714,
      "식별정보와": 6715,
      "식별정보가": 6716,
      "다자간의": 6717,
      "코드값에": 6718,
      "##ata": 6719,
      "##수단에서": 6720,
      "정해져": 6721,
      "이미지와": 6722,
      "분산혼": 6723,
      "분산시키는": 6724,
      "유무선통신": 6725,
      "타임코드를": 6726,
      "알림을": 6727,
      "엔티티로부터": 6728,
      "방향으로": 6729,
      "부가적인": 6730,
      "통보를": 6731,
      "지국장치가": 6732,
      "현황에": 6733,
      "가이드들을": 6734,
      "재선택에": 6735,
      "보호자": 6736,
      "부여하는": 6737,
      "##시간이": 6738,
      "5011": 6739,
      "3192": 6740,
      "만족시키는": 6741,
      "만족되는지에": 6742,
      "제공방법에": 6743,
      "배치된": 6744,
      "체형교정": 6745,
      "위치와의": 6746,
      "촬영지원하기": 6747,
      "조합된": 6748,
      "증가된": 6749,
      "증가시키기": 6750,
      "커버하는": 6751,
      "##andom": 6752,
      "방송수신자": 6753,
      "임계값을": 6754,
      "가진다": 6755,
      "개설을": 6756,
      "##실시예는": 6757,
      "이어서": 6758,
      "제4단계": 6759,
      "이전에": 6760,
      "이전과": 6761,
      "라우터장치에서": 6762,
      "Change": 6763,
      "저장매체로부터": 6764,
      "BSC": 6765,
      "전국적인": 6766,
      "제1무선통신망": 6767,
      "프로파일을": 6768,
      "클라우드서버에": 6769,
      "함수는": 6770,
      "모뎀에": 6771,
      "##pecific": 6772,
      "송신기는": 6773,
      "송신기로부터": 6774,
      "Tx존에": 6775,
      "addr": 6776,
      "unidirectional": 6777,
      "패턴을": 6778,
      "능력이": 6779,
      "능력정보를": 6780,
      "참가자들은": 6781,
      "탑승자에게": 6782,
      "탑승자와의": 6783,
      "표준에": 6784,
      "교통상황에": 6785,
      "서브셋을": 6786,
      "계속하여": 6787,
      "않으면서도": 6788,
      "대기순번을": 6789,
      "overhe": 6790,
      "적절하게": 6791,
      "무선접속장치를": 6792,
      "TMU가": 6793,
      "영상표시장치에서": 6794,
      "DSA": 6795,
      "여부가": 6796,
      "Resource": 6797,
      "본체의": 6798,
      "순번요청에": 6799,
      "QoS를": 6800,
      "포워딩된": 6801,
      "공지하고": 6802,
      "비정상이": 6803,
      "알고리즘에": 6804,
      "공정과": 6805,
      "공정에서": 6806,
      "내비게이션과": 6807,
      "벗어나": 6808,
      "순서로": 6809,
      "순서대로": 6810,
      "최단거리로": 6811,
      "담당하며": 6812,
      "방위에": 6813,
      "라우팅하는": 6814,
      "가중치를": 6815,
      "관할하는": 6816,
      "관할지역": 6817,
      "부합하는": 6818,
      "부합하도록": 6819,
      "삭제될": 6820,
      "스크린": 6821,
      "축적하는": 6822,
      "표출시키다가": 6823,
      "트랜시버": 6824,
      "트랜시버를": 6825,
      "INT": 6826,
      "도달될": 6827,
      "물론이다": 6828,
      "방송시청": 6829,
      "와이맥스에서": 6830,
      "CMAM을": 6831,
      "Gateway": 6832,
      "세부사항": 6833,
      "있었다": 6834,
      "광고화면을": 6835,
      "원샷케어영상교정": 6836,
      "5575": 6837,
      "방문지역": 6838,
      "회피할": 6839,
      "어나운스먼트를": 6840,
      "방안을": 6841,
      "완전한": 6842,
      "##vertisement": 6843,
      "초광대역을": 6844,
      "반응을": 6845,
      "의거하여": 6846,
      "전기적으로": 6847,
      "##arent": 6848,
      "무선자원상에": 6849,
      "segment": 6850,
      "감시하는": 6851,
      "체결되는": 6852,
      "위치서버에게": 6853,
      "발생했다는": 6854,
      "Noise": 6855,
      "불필요한": 6856,
      "##ponse": 6857,
      "용도정의메모리영역에": 6858,
      "1≤n≤": 6859,
      "Gener": 6860,
      "OPMD": 6861,
      "Pseudo": 6862,
      "VUE": 6863,
      "awake": 6864,
      "cctv": 6865,
      "등주에": 6866,
      "시뮬레이터": 6867,
      "어웨이크": 6868,
      "언블로킹": 6869,
      "엔코딩되어": 6870,
      "인포테인": 6871,
      "직간접적으로": 6872,
      "참석자": 6873,
      "클래스": 6874,
      "핫스팟": 6875,
      "항목에": 6876,
      "무선채널부분": 6877,
      "노드인지의": 6878,
      "디지털사이니": 6879,
      "촬영지원하기로": 6880,
      "address": 6881,
      "overhead": 6882,
      "세부사항들을": 6883,
      "1≤n≤N": 6884,
      "2에": 6885,
      "ATS": 6886,
      "Ele": 6887,
      "Enti": 6888,
      "Join": 6889,
      "Le": 6890,
      "LC": 6891,
      "Low": 6892,
      "Layer": 6893,
      "Mod": 6894,
      "OR": 6895,
      "PH": 6896,
      "Port": 6897,
      "Presentation": 6898,
      "Packet": 6899,
      "S2": 6900,
      "STA": 6901,
      "S10": 6902,
      "Tele": 6903,
      "TRS": 6904,
      "UA": 6905,
      "WWAN": 6906,
      "application": 6907,
      "aler": 6908,
      "dynamic": 6909,
      "element": 6910,
      "everything": 6911,
      "fr": 6912,
      "hop": 6913,
      "information": 6914,
      "initi": 6915,
      "key": 6916,
      "lo": 6917,
      "land": 6918,
      "long": 6919,
      "number": 6920,
      "random": 6921,
      "가정": 6922,
      "각도": 6923,
      "감도의": 6924,
      "거동": 6925,
      "경계": 6926,
      "고객": 6927,
      "관제": 6928,
      "관광": 6929,
      "교육": 6930,
      "규칙": 6931,
      "기타": 6932,
      "나쁜": 6933,
      "높게": 6934,
      "높일": 6935,
      "동보": 6936,
      "되며": 6937,
      "리프": 6938,
      "마련": 6939,
      "만들": 6940,
      "메시": 6941,
      "메모": 6942,
      "몇몇": 6943,
      "문서": 6944,
      "및장치": 6945,
      "방출": 6946,
      "배정": 6947,
      "불리": 6948,
      "불가": 6949,
      "브라우": 6950,
      "비트를": 6951,
      "빠르": 6952,
      "사진": 6953,
      "세기": 6954,
      "수준": 6955,
      "순방향": 6956,
      "스캐": 6957,
      "시민": 6958,
      "시분할": 6959,
      "아키": 6960,
      "않도록": 6961,
      "양호": 6962,
      "에이": 6963,
      "엔트": 6964,
      "연산": 6965,
      "온디": 6966,
      "우세": 6967,
      "유니": 6968,
      "의뢰": 6969,
      "이종": 6970,
      "이외": 6971,
      "이들의": 6972,
      "인스": 6973,
      "잉여": 6974,
      "재지": 6975,
      "접촉": 6976,
      "제조": 6977,
      "제동": 6978,
      "조명": 6979,
      "줄여": 6980,
      "중에서의": 6981,
      "중요한": 6982,
      "즉각": 6983,
      "차이": 6984,
      "평균": 6985,
      "해소": 6986,
      "헤드": 6987,
      "헬스": 6988,
      "##으며": 6989,
      "##이지": 6990,
      "##예경보": 6991,
      "##IC": 6992,
      "##하므로": 6993,
      "##키는": 6994,
      "##as": 6995,
      "##ast": 6996,
      "##ev": 6997,
      "##ning": 6998,
      "##기와": 6999,
      "##위한": 7000,
      "##tlement": 7001,
      "##어를": 7002,
      "##들에서의": 7003,
      "##ust": 7004,
      "##uet": 7005,
      "##mati": 7006,
      "##BC": 7007,
      "##BCS": 7008,
      "##ple": 7009,
      "##ry": 7010,
      "##화를": 7011,
      "##vite": 7012,
      "##vision": 7013,
      "##cs": 7014,
      "##절차": 7015,
      "##ff": 7016,
      "##만으로": 7017,
      "##핑하여": 7018,
      "##출하고": 7019,
      "##OMM": 7020,
      "##했을": 7021,
      "##프트를": 7022,
      "##구에": 7023,
      "##피어": 7024,
      "##먼테이션": 7025,
      "##품질": 7026,
      "##투피어": 7027,
      "##분야": 7028,
      "##패드": 7029,
      "##멘드": 7030,
      "##탬프": 7031,
      "서비스는": 7032,
      "서비스만": 7033,
      "서비스들의": 7034,
      "수신하게": 7035,
      "방송메시지": 7036,
      "방송제어": 7037,
      "방송시스템에": 7038,
      "단말들이": 7039,
      "제공한": 7040,
      "제공시스템에": 7041,
      "##에서도": 7042,
      "방법들을": 7043,
      "전송은": 7044,
      "전송으로": 7045,
      "전송되며": 7046,
      "전송하거나": 7047,
      "전송받는": 7048,
      "단계에": 7049,
      "단계들을": 7050,
      "메시지에서": 7051,
      "발명을": 7052,
      "통신사": 7053,
      "통신기능이": 7054,
      "데이터통신": 7055,
      "사용되어": 7056,
      "사용해서": 7057,
      "장치들을": 7058,
      "장치들의": 7059,
      "단말기들을": 7060,
      "요청하기": 7061,
      "채널번호": 7062,
      "채널들로부터": 7063,
      "컨텐츠인": 7064,
      "송신부": 7065,
      "##ers": 7066,
      "##erial": 7067,
      "위치별": 7068,
      "##통신과": 7069,
      "##정보와": 7070,
      "##정보가": 7071,
      "과정에": 7072,
      "선택적": 7073,
      "선택신호를": 7074,
      "제2무선통신": 7075,
      "식별할": 7076,
      "식별하여": 7077,
      "접속할": 7078,
      "접속정보를": 7079,
      "결정되는": 7080,
      "전달에": 7081,
      "전달한다": 7082,
      "전달하며": 7083,
      "전달하도록": 7084,
      "전달되면": 7085,
      "처리모듈": 7086,
      "영역들에서": 7087,
      "수행하여": 7088,
      "수행함으로써": 7089,
      "수행하지": 7090,
      "재생중인": 7091,
      "IP를": 7092,
      "노드을": 7093,
      "노드에서": 7094,
      "노드들에": 7095,
      "관련되는": 7096,
      "재난예경보": 7097,
      "상태가": 7098,
      "상태인": 7099,
      "상태정보를": 7100,
      "각각이": 7101,
      "각각에서": 7102,
      "클라이언트의": 7103,
      "실행시키": 7104,
      "가능한지": 7105,
      "##시키며": 7106,
      "디스플레이될": 7107,
      "디스플레이하기": 7108,
      "디스플레이시키는": 7109,
      "입력이": 7110,
      "지원에": 7111,
      "동작과": 7112,
      "동작가능한": 7113,
      "동작가능하게": 7114,
      "송수신기를": 7115,
      "개인영역": 7116,
      "송출할": 7117,
      "주파수와": 7118,
      "표시하도록": 7119,
      "테이블로부터": 7120,
      "모듈과": 7121,
      "센터를": 7122,
      "주소로": 7123,
      "시청에": 7124,
      "시청하면서": 7125,
      "118": 7126,
      "인터넷망을": 7127,
      "##ndi": 7128,
      "##ndow": 7129,
      "스트리밍을": 7130,
      "구비한다": 7131,
      "프레임이": 7132,
      "무선통신부를": 7133,
      "필요가": 7134,
      "필요성을": 7135,
      "촬영을": 7136,
      "연관됨": 7137,
      "중계로": 7138,
      "시점을": 7139,
      "전원으로": 7140,
      "수신기에서": 7141,
      "다운로드된": 7142,
      "자원들을": 7143,
      "다중전송": 7144,
      "개별적": 7145,
      "##reless": 7146,
      "경우에만": 7147,
      "통지에": 7148,
      "핸드오버하는": 7149,
      "스마트폰에서": 7150,
      "포인트는": 7151,
      "포인트에서": 7152,
      "설명된": 7153,
      "데이터베이스로부터": 7154,
      "검색을": 7155,
      "애드혹": 7156,
      "연동되어": 7157,
      "장비를": 7158,
      "세그먼테이션": 7159,
      "아이디에": 7160,
      "변경이": 7161,
      "변경되는": 7162,
      "어플리케이션은": 7163,
      "트래픽의": 7164,
      "##단계는": 7165,
      "비콘신호를": 7166,
      "게이트웨이는": 7167,
      "탐색하고": 7168,
      "통신망의": 7169,
      "멤버들이": 7170,
      "활성모드": 7171,
      "기준과": 7172,
      "고유의": 7173,
      "비교함으로써": 7174,
      "인코딩되어": 7175,
      "분배하기": 7176,
      "절차가": 7177,
      "전화번호로": 7178,
      "전화번호가": 7179,
      "##emand": 7180,
      "조회신호를": 7181,
      "다이버시티에": 7182,
      "##요청을": 7183,
      "0013": 7184,
      "0018": 7185,
      "0014": 7186,
      "유형별": 7187,
      "최적화된": 7188,
      "교환하는": 7189,
      "선별부": 7190,
      "홍보하는": 7191,
      "이동단말기에": 7192,
      "오프라인": 7193,
      "##ator": 7194,
      "수신부가": 7195,
      "전파를": 7196,
      "제안한다": 7197,
      "판독가능한": 7198,
      "거리에": 7199,
      "통보하는": 7200,
      "TMGI들": 7201,
      "MCBCS": 7202,
      "통신시스템에": 7203,
      "스캔의": 7204,
      "차량간의": 7205,
      "정의된": 7206,
      "스케줄링을": 7207,
      "가용성에": 7208,
      "알리기": 7209,
      "최소화시키는": 7210,
      "504": 7211,
      "##처리부": 7212,
      "삽입된": 7213,
      "삽입구에": 7214,
      "제공방법이": 7215,
      "request": 7216,
      "분할하고": 7217,
      "##전력을": 7218,
      "방송수신자에": 7219,
      "디코딩하는": 7220,
      "송수신기로부터": 7221,
      "카운트하는": 7222,
      "Chil": 7223,
      "기본설정": 7224,
      "작성된": 7225,
      "작성하는": 7226,
      "터미널로": 7227,
      "eNB로": 7228,
      "Broadband": 7229,
      "인가되는": 7230,
      "피드백이": 7231,
      "adaptive": 7232,
      "시청자들이": 7233,
      "구역에": 7234,
      "구분하여": 7235,
      "녹음된": 7236,
      "요가교정관리": 7237,
      "요가자세": 7238,
      "QoE": 7239,
      "물체의": 7240,
      "사람들이": 7241,
      "가변적인": 7242,
      "커넥션을": 7243,
      "피어투피어": 7244,
      "##ility": 7245,
      "901": 7246,
      "표현하기": 7247,
      "DCD클라이언트로부터": 7248,
      "피보호자가": 7249,
      "지역도메인설정": 7250,
      "레이어에": 7251,
      "의장이": 7252,
      "단축키에": 7253,
      "도시한": 7254,
      "방위각": 7255,
      "원본영상의": 7256,
      "크기의": 7257,
      "서브세트를": 7258,
      "기재된": 7259,
      "알려주는": 7260,
      "줄이는": 7261,
      "필터링": 7262,
      "확장하여": 7263,
      "##송수신부를": 7264,
      "체형측정기기": 7265,
      "검증하는": 7266,
      "파워를": 7267,
      "구성됨으로서": 7268,
      "명세서의": 7269,
      "Transport": 7270,
      "프롬프트": 7271,
      "오프로딩을": 7272,
      "resource": 7273,
      "분야에": 7274,
      "Energ": 7275,
      "interval": 7276,
      "복잡한": 7277,
      "편리하게": 7278,
      "목적지까지의": 7279,
      "invite": 7280,
      "사항을": 7281,
      "판별하는": 7282,
      "##인증을": 7283,
      "LoRaWAN": 7284,
      "Bluet": 7285,
      "signaling": 7286,
      "telemati": 7287,
      "바탕으로": 7288,
      "재설정에": 7289,
      "음성변환메시지": 7290,
      "과부하를": 7291,
      "##ooth": 7292,
      "차량내부정보를": 7293,
      "ATSC": 7294,
      "Entitlement": 7295,
      "LCID": 7296,
      "Moder": 7297,
      "ORBC": 7298,
      "PHY": 7299,
      "frame": 7300,
      "메시징": 7301,
      "아키텍": 7302,
      "양호한": 7303,
      "에이전": 7304,
      "온디멘드": 7305,
      "우세한": 7306,
      "인스턴": 7307,
      "헤드셋": 7308,
      "##ustom": 7309,
      "제2무선통신망을": 7310,
      "다중전송이": 7311,
      "Child": 7312,
      "요가교정관리데이터를": 7313,
      "Energy": 7314,
      "Bluetooth": 7315,
      "telematics": 7316,
      "ORBCOMM": 7317,
      "1에": 7318,
      "1과정": 7319,
      "3단": 7320,
      "3G": 7321,
      "430": 7322,
      "AM": 7323,
      "AS": 7324,
      "Area": 7325,
      "Air": 7326,
      "BBS": 7327,
      "CS": 7328,
      "CH": 7329,
      "CN": 7330,
      "Co": 7331,
      "Communication": 7332,
      "Custom": 7333,
      "DC": 7334,
      "GCS": 7335,
      "GTP": 7336,
      "GGSN": 7337,
      "HS": 7338,
      "MO": 7339,
      "Ori": 7340,
      "PA": 7341,
      "PC": 7342,
      "Paging": 7343,
      "Parent": 7344,
      "RE": 7345,
      "RTS": 7346,
      "S1": 7347,
      "S20": 7348,
      "Source": 7349,
      "Signal": 7350,
      "SGSN": 7351,
      "Specific": 7352,
      "TL": 7353,
      "Type": 7354,
      "TTI": 7355,
      "UBMS": 7356,
      "Val": 7357,
      "WL": 7358,
      "ac": 7359,
      "ch": 7360,
      "cou": 7361,
      "data": 7362,
      "en": 7363,
      "file": 7364,
      "fun": 7365,
      "gate": 7366,
      "hoc": 7367,
      "on": 7368,
      "road": 7369,
      "size": 7370,
      "server": 7371,
      "가리": 7372,
      "값보다": 7373,
      "강도를": 7374,
      "갖고": 7375,
      "경쟁": 7376,
      "공중": 7377,
      "과도": 7378,
      "관찰": 7379,
      "관전을": 7380,
      "교정": 7381,
      "구별": 7382,
      "그대로": 7383,
      "기계": 7384,
      "기점": 7385,
      "까지": 7386,
      "끝나": 7387,
      "내지": 7388,
      "내재": 7389,
      "높이": 7390,
      "눌려": 7391,
      "능동": 7392,
      "대리": 7393,
      "도출되는": 7394,
      "들에": 7395,
      "디폴": 7396,
      "디코드": 7397,
      "렌터": 7398,
      "로깅": 7399,
      "마켓": 7400,
      "막을": 7401,
      "매번": 7402,
      "매트릭": 7403,
      "무구": 7404,
      "바코드를": 7405,
      "받고": 7406,
      "받도록": 7407,
      "발효": 7408,
      "배속": 7409,
      "배터리": 7410,
      "보이스": 7411,
      "보정하는": 7412,
      "부터": 7413,
      "부담": 7414,
      "빔을": 7415,
      "빔포": 7416,
      "뿐이며": 7417,
      "상부에": 7418,
      "샘플": 7419,
      "생길": 7420,
      "세분": 7421,
      "셀들": 7422,
      "셀과": 7423,
      "셀들의": 7424,
      "수는": 7425,
      "수동": 7426,
      "수반": 7427,
      "슬레이": 7428,
      "승조": 7429,
      "시커": 7430,
      "안심": 7431,
      "어시": 7432,
      "어태": 7433,
      "업그레이딩하는": 7434,
      "없을": 7435,
      "예는": 7436,
      "예상": 7437,
      "온보": 7438,
      "완화": 7439,
      "외부를": 7440,
      "우수": 7441,
      "원할": 7442,
      "원거리": 7443,
      "위성을": 7444,
      "음향": 7445,
      "이런": 7446,
      "인하여": 7447,
      "읽을": 7448,
      "자료": 7449,
      "잠재": 7450,
      "재브로드": 7451,
      "저하": 7452,
      "저속": 7453,
      "적은": 7454,
      "전관": 7455,
      "전문": 7456,
      "점등": 7457,
      "점유": 7458,
      "정상적으로": 7459,
      "제6": 7460,
      "제목": 7461,
      "조정된": 7462,
      "주의": 7463,
      "주는": 7464,
      "줄이고": 7465,
      "지칭": 7466,
      "직립": 7467,
      "질을": 7468,
      "창출": 7469,
      "출동": 7470,
      "충분": 7471,
      "측정하는": 7472,
      "침실": 7473,
      "컨테": 7474,
      "컨트롤": 7475,
      "코덱": 7476,
      "크기를": 7477,
      "키는": 7478,
      "탐지": 7479,
      "투명": 7480,
      "파싱": 7481,
      "펜더": 7482,
      "평면": 7483,
      "하지": 7484,
      "하차": 7485,
      "할지": 7486,
      "해서": 7487,
      "협의의": 7488,
      "호환": 7489,
      "횟수를": 7490,
      "힘든": 7491,
      "ＢＣ": 7492,
      "Ｃｏ": 7493,
      "##함으로": 7494,
      "##성은": 7495,
      "##성있": 7496,
      "##이면": 7497,
      "##트로부터": 7498,
      "##스를": 7499,
      "##스케어": 7500,
      "##스티드": 7501,
      "##역으로": 7502,
      "##는가를": 7503,
      "##통을": 7504,
      "##부로": 7505,
      "##전파": 7506,
      "##보이스": 7507,
      "##back": 7508,
      "##ical": 7509,
      "##ges": 7510,
      "##get": 7511,
      "##gence": 7512,
      "##인을": 7513,
      "##자와": 7514,
      "##계측": 7515,
      "##oint": 7516,
      "##장애": 7517,
      "##물에": 7518,
      "##ution": 7519,
      "##mit": 7520,
      "##ps": 7521,
      "##presentation": 7522,
      "##ration": 7523,
      "##화에": 7524,
      "##화하기": 7525,
      "##화되는": 7526,
      "##짐을": 7527,
      "##직의": 7528,
      "##과는": 7529,
      "##UC": 7530,
      "##블링": 7531,
      "##디바이스": 7532,
      "##PC": 7533,
      "##Way": 7534,
      "##받으면": 7535,
      "##얼러": 7536,
      "##일러": 7537,
      "##점을": 7538,
      "##해두고": 7539,
      "##망의": 7540,
      "##망에서": 7541,
      "##그룹": 7542,
      "##ＡＮ": 7543,
      "##잡제어": 7544,
      "##ＭＣ": 7545,
      "##램블링": 7546,
      "##락한": 7547,
      "##렬하는": 7548,
      "##ｏｎ": 7549,
      "##ｍｍ": 7550,
      "##ｕｎ": 7551,
      "##ｉｃ": 7552,
      "##ｉｏｎ": 7553,
      "##ａｔ": 7554,
      "##헬스케어": 7555,
      "##쉬메시지를": 7556,
      "##쪽으로": 7557,
      "##푸쉬메시지를": 7558,
      "서비스로": 7559,
      "서비스로서": 7560,
      "서비스시에": 7561,
      "서비스제어": 7562,
      "수신수단": 7563,
      "수신전력": 7564,
      "수신하였": 7565,
      "수신됨에": 7566,
      "수신목록": 7567,
      "방송한다": 7568,
      "방송하도록": 7569,
      "방송신호에": 7570,
      "방송임을": 7571,
      "방송장치로": 7572,
      "단말들의": 7573,
      "단말들에": 7574,
      "정보들": 7575,
      "정보분배": 7576,
      "제공부를": 7577,
      "방법으로": 7578,
      "전송기": 7579,
      "전송율": 7580,
      "전송시간": 7581,
      "전송관리부": 7582,
      "단계가": 7583,
      "메시지이고": 7584,
      "통신용": 7585,
      "통신신호를": 7586,
      "통신방식": 7587,
      "무선의": 7588,
      "이동한": 7589,
      "시스템인": 7590,
      "시스템으로": 7591,
      "시스템으로부터": 7592,
      "시스템으로의": 7593,
      "장치들에": 7594,
      "단말기별로": 7595,
      "사용자간": 7596,
      "사용자들이": 7597,
      "콘텐츠인": 7598,
      "네트워크들과": 7599,
      "하나로": 7600,
      "요청신호를": 7601,
      "채널은": 7602,
      "제어채널": 7603,
      "제어방법에": 7604,
      "기지국정보": 7605,
      "기지국에게": 7606,
      "송신한": 7607,
      "송신되면": 7608,
      "송신함으로써": 7609,
      "송신주기": 7610,
      "송신주기를": 7611,
      "제1기지국": 7612,
      "제1MBS": 7613,
      "제1지리적인": 7614,
      "제1보이스": 7615,
      "제공하는지": 7616,
      "위치의": 7617,
      "위치하여": 7618,
      "##통신을": 7619,
      "특징에": 7620,
      "특징을": 7621,
      "프로슈머": 7622,
      "디바이스들의": 7623,
      "##caps": 7624,
      "신호에서": 7625,
      "신호들을": 7626,
      "선택기를": 7627,
      "모바일브로드": 7628,
      "제2MBS": 7629,
      "제2지리적인": 7630,
      "식별번호": 7631,
      "접속정보": 7632,
      "접속되고": 7633,
      "저장부를": 7634,
      "이동통신시스템에서": 7635,
      "생성될": 7636,
      "생성정보를": 7637,
      "생성하도록": 7638,
      "생성해두고": 7639,
      "그룹으로": 7640,
      "그룹들을": 7641,
      "그룹들로": 7642,
      "그룹으로의": 7643,
      "결정하도록": 7644,
      "결정되면": 7645,
      "구성의": 7646,
      "구성들을": 7647,
      "##onic": 7648,
      "영상에": 7649,
      "설정될": 7650,
      "##장치로부터": 7651,
      "전달이": 7652,
      "전달될": 7653,
      "전달망을": 7654,
      "전달받을": 7655,
      "처리부는": 7656,
      "10km": 7657,
      "실시예들의": 7658,
      "대응시켜": 7659,
      "##erving": 7660,
      "##ervation": 7661,
      "수행한다": 7662,
      "세션은": 7663,
      "세션과": 7664,
      "세션으로": 7665,
      "가입하여": 7666,
      "시간대": 7667,
      "응답신호를": 7668,
      "긴급메시지": 7669,
      "지역정보를": 7670,
      "미디어를": 7671,
      "노드와": 7672,
      "관리되는": 7673,
      "관련되어": 7674,
      "##캐스팅하는": 7675,
      "등록부와": 7676,
      "등록함으로써": 7677,
      "등록요청을": 7678,
      "연결의": 7679,
      "재난통신과": 7680,
      "할당할": 7681,
      "할당방법을": 7682,
      "계층에서": 7683,
      "Multicasting": 7684,
      "클라이언트들": 7685,
      "브로드캐스팅하고": 7686,
      "액세스를": 7687,
      "해결한다": 7688,
      "기술이": 7689,
      "기술과": 7690,
      "208": 7691,
      "207": 7692,
      "서버로부터의": 7693,
      "입력하거나": 7694,
      "입력부에서": 7695,
      "지원할": 7696,
      "지원하며": 7697,
      "지원하지": 7698,
      "근거한": 7699,
      "근거해서": 7700,
      "동작들을": 7701,
      "동작시키는": 7702,
      "매핑하는": 7703,
      "매핑시키는": 7704,
      "송수신부를": 7705,
      "송수신부와": 7706,
      "개인화된": 7707,
      "개인영역에": 7708,
      "121": 7709,
      "가입자에게": 7710,
      "송출된": 7711,
      "종료되면": 7712,
      "주파수가": 7713,
      "주파수별": 7714,
      "경로로": 7715,
      "구간이": 7716,
      "구간별로": 7717,
      "모듈들을": 7718,
      "기능들의": 7719,
      "기능들은": 7720,
      "문제점들을": 7721,
      "획득절차": 7722,
      "파일의": 7723,
      "개시를": 7724,
      "개시할": 7725,
      "모드로의": 7726,
      "주변으로": 7727,
      "##lexi": 7728,
      "이동국에게": 7729,
      "무선통신시스템에서": 7730,
      "##서버와": 7731,
      "DMB와": 7732,
      "DMB가": 7733,
      "목적지를": 7734,
      "중계한": 7735,
      "##ingle": 7736,
      "제어기는": 7737,
      "제어기가": 7738,
      "인터페이스부": 7739,
      "발신정보를": 7740,
      "수신기에서의": 7741,
      "##all": 7742,
      "단말로부터의": 7743,
      "다운로드하여": 7744,
      "##rength": 7745,
      "소정시간": 7746,
      "추가하거나": 7747,
      "포인트가": 7748,
      "설치하지": 7749,
      "소스로부터의": 7750,
      "AP는": 7751,
      "공급이": 7752,
      "공급된": 7753,
      "상황이": 7754,
      "상황의": 7755,
      "##모듈의": 7756,
      "사업자가": 7757,
      "장비들에": 7758,
      "검출부": 7759,
      "검출하여": 7760,
      "나타내고": 7761,
      "나타내기": 7762,
      "대상콘텐츠": 7763,
      "활용하는": 7764,
      "아이디는": 7765,
      "아이디와": 7766,
      "아이디가": 7767,
      "컴퓨터로": 7768,
      "자신과": 7769,
      "##ance": 7770,
      "다이얼러": 7771,
      "필요한지": 7772,
      "인식을": 7773,
      "인식할": 7774,
      "인식과": 7775,
      "인식부와": 7776,
      "##시에는": 7777,
      "##시에이터": 7778,
      "변경에": 7779,
      "변경하여": 7780,
      "트래픽이": 7781,
      "전달하는데": 7782,
      "주기로": 7783,
      "기기의": 7784,
      "품질에": 7785,
      "회의자료를": 7786,
      "리소스의": 7787,
      "##제어부의": 7788,
      "비콘모듈": 7789,
      "##elay": 7790,
      "대기하는": 7791,
      "##vergence": 7792,
      "요소가": 7793,
      "요소로부터": 7794,
      "구현예": 7795,
      "동안에": 7796,
      "멤버들에게": 7797,
      "멤버들과": 7798,
      "흐름과": 7799,
      "목록에서": 7800,
      "목록화하기": 7801,
      "범위로": 7802,
      "상응하게": 7803,
      "통합하여": 7804,
      "랭킹된": 7805,
      "일부가": 7806,
      "기준에": 7807,
      "기준설정": 7808,
      "효율적": 7809,
      "이동통신단말기로": 7810,
      "고유정보를": 7811,
      "셀룰라": 7812,
      "CBS푸쉬메시지를": 7813,
      "분배된": 7814,
      "수신자에": 7815,
      "수신자들": 7816,
      "전화번호에": 7817,
      "시각을": 7818,
      "##ented": 7819,
      "진행되는": 7820,
      "플랫폼으로": 7821,
      "플랫폼에서의": 7822,
      "플랫폼들에서의": 7823,
      "안전을": 7824,
      "구동시키는": 7825,
      "구동시켜": 7826,
      "융합된": 7827,
      "융합헬스케어": 7828,
      "조건들에": 7829,
      "참가자가": 7830,
      "로밍을": 7831,
      "지진으로": 7832,
      "지진강도가": 7833,
      "지진계측": 7834,
      "조회하여": 7835,
      "218": 7836,
      "유닛들": 7837,
      "이상에": 7838,
      "호스트로서": 7839,
      "##ock": 7840,
      "0015": 7841,
      "0019": 7842,
      "압축하는": 7843,
      "멀티캐스팅되도록": 7844,
      "교환국": 7845,
      "일정에": 7846,
      "카메라와": 7847,
      "카메라부에서": 7848,
      "카메라부의": 7849,
      "확립하기": 7850,
      "확립되는": 7851,
      "이동통신망에서의": 7852,
      "결합하여": 7853,
      "코어망의": 7854,
      "유저들이": 7855,
      "무선망에": 7856,
      "활성화를": 7857,
      "트리거하기": 7858,
      "사물에": 7859,
      "사물로부터": 7860,
      "사물인터넷": 7861,
      "적용할": 7862,
      "적용되는": 7863,
      "전파로": 7864,
      "사전인증을": 7865,
      "##arget": 7866,
      "내장한": 7867,
      "제안하고자": 7868,
      "부가적으로": 7869,
      "동기화시키는": 7870,
      "30km": 7871,
      "검사를": 7872,
      "방지하는": 7873,
      "비상방송": 7874,
      "유휴자원": 7875,
      "형성되어": 7876,
      "컴포넌트를": 7877,
      "120a": 7878,
      "120b": 7879,
      "배송을": 7880,
      "연속적인": 7881,
      "배포하는": 7882,
      "배포하기": 7883,
      "분류하고": 7884,
      "분류기반": 7885,
      "패키징": 7886,
      "역할은": 7887,
      "역할로서": 7888,
      "매체는": 7889,
      "보호자에게": 7890,
      "부여하며": 7891,
      "부여받아": 7892,
      "대체영역": 7893,
      "릴레이들로": 7894,
      "변조하는": 7895,
      "정의하고": 7896,
      "갱신하여": 7897,
      "매칭하는": 7898,
      "506": 7899,
      "제한된": 7900,
      "프로필은": 7901,
      "Recei": 7902,
      "레벨의": 7903,
      "만족시키면": 7904,
      "삽입하여": 7905,
      "제공방법은": 7906,
      "바람직하게": 7907,
      "ECH에": 7908,
      "트랜스코딩": 7909,
      "속도보다": 7910,
      "양태는": 7911,
      "정합을": 7912,
      "방송수신단말기": 7913,
      "이루어진다": 7914,
      "개설할": 7915,
      "낭비와": 7916,
      "정밀위치를": 7917,
      "집합은": 7918,
      "반복하여": 7919,
      "송수신기와": 7920,
      "안테나를": 7921,
      "박스와": 7922,
      "박스에게": 7923,
      "캐리어를": 7924,
      "##제공서버에": 7925,
      "##결과를": 7926,
      "라우터장치를": 7927,
      "저장매체를": 7928,
      "발송하는": 7929,
      "포트번호를": 7930,
      "포함시켜서": 7931,
      "긴급정보가": 7932,
      "GW가": 7933,
      "모뎀으로부터": 7934,
      "모뎀내에": 7935,
      "전용채널을": 7936,
      "기회에": 7937,
      "기회를": 7938,
      "Convergence": 7939,
      "RF송수신": 7940,
      "구역들": 7941,
      "실패할": 7942,
      "##지역을": 7943,
      "ESG에": 7944,
      "반영하여": 7945,
      "예정인": 7946,
      "수신감도를": 7947,
      "카운팅하는": 7948,
      "클러스터에": 7949,
      "DB에": 7950,
      "OTA로": 7951,
      "분리하여": 7952,
      "신속히": 7953,
      "충전된": 7954,
      "투사하는": 7955,
      "트랜스폰더를": 7956,
      "DRNC": 7957,
      "표준화에": 7958,
      "##과정을": 7959,
      "수신중의": 7960,
      "0008": 7961,
      "LMA는": 7962,
      "RNC에": 7963,
      "에러가": 7964,
      "중첩되는": 7965,
      "##DPA": 7966,
      "대기순번정보를": 7967,
      "지국장치들": 7968,
      "무선인터페이스를": 7969,
      "무선인터페이스중": 7970,
      "노래반주기와": 7971,
      "areas": 7972,
      "끊김없이": 7973,
      "단말들에게의": 7974,
      "통신장치로부터": 7975,
      "버전에": 7976,
      "송신물의": 7977,
      "타겟팅하기": 7978,
      "엔터티로": 7979,
      "transmission": 7980,
      "지역도메인으로": 7981,
      "Response": 7982,
      "Reservation": 7983,
      "본체를": 7984,
      "선정되어": 7985,
      "예측하고": 7986,
      "운영서버": 7987,
      "통합망에서": 7988,
      "COIS에": 7989,
      "포워딩하는": 7990,
      "Add": 7991,
      "Advertisement": 7992,
      "근접한": 7993,
      "순위를": 7994,
      "자세에": 7995,
      "단축키가": 7996,
      "렌더링된": 7997,
      "렌더링할": 7998,
      "내비게이션이": 7999
    }
  }
}